<unk>	0
<s>	0
</s>	0
<pad>	0
<0x00>	0
<0x01>	0
<0x02>	0
<0x03>	0
<0x04>	0
<0x05>	0
<0x06>	0
<0x07>	0
<0x08>	0
<0x09>	0
<0x0A>	0
<0x0B>	0
<0x0C>	0
<0x0D>	0
<0x0E>	0
<0x0F>	0
<0x10>	0
<0x11>	0
<0x12>	0
<0x13>	0
<0x14>	0
<0x15>	0
<0x16>	0
<0x17>	0
<0x18>	0
<0x19>	0
<0x1A>	0
<0x1B>	0
<0x1C>	0
<0x1D>	0
<0x1E>	0
<0x1F>	0
<0x20>	0
<0x21>	0
<0x22>	0
<0x23>	0
<0x24>	0
<0x25>	0
<0x26>	0
<0x27>	0
<0x28>	0
<0x29>	0
<0x2A>	0
<0x2B>	0
<0x2C>	0
<0x2D>	0
<0x2E>	0
<0x2F>	0
<0x30>	0
<0x31>	0
<0x32>	0
<0x33>	0
<0x34>	0
<0x35>	0
<0x36>	0
<0x37>	0
<0x38>	0
<0x39>	0
<0x3A>	0
<0x3B>	0
<0x3C>	0
<0x3D>	0
<0x3E>	0
<0x3F>	0
<0x40>	0
<0x41>	0
<0x42>	0
<0x43>	0
<0x44>	0
<0x45>	0
<0x46>	0
<0x47>	0
<0x48>	0
<0x49>	0
<0x4A>	0
<0x4B>	0
<0x4C>	0
<0x4D>	0
<0x4E>	0
<0x4F>	0
<0x50>	0
<0x51>	0
<0x52>	0
<0x53>	0
<0x54>	0
<0x55>	0
<0x56>	0
<0x57>	0
<0x58>	0
<0x59>	0
<0x5A>	0
<0x5B>	0
<0x5C>	0
<0x5D>	0
<0x5E>	0
<0x5F>	0
<0x60>	0
<0x61>	0
<0x62>	0
<0x63>	0
<0x64>	0
<0x65>	0
<0x66>	0
<0x67>	0
<0x68>	0
<0x69>	0
<0x6A>	0
<0x6B>	0
<0x6C>	0
<0x6D>	0
<0x6E>	0
<0x6F>	0
<0x70>	0
<0x71>	0
<0x72>	0
<0x73>	0
<0x74>	0
<0x75>	0
<0x76>	0
<0x77>	0
<0x78>	0
<0x79>	0
<0x7A>	0
<0x7B>	0
<0x7C>	0
<0x7D>	0
<0x7E>	0
<0x7F>	0
<0x80>	0
<0x81>	0
<0x82>	0
<0x83>	0
<0x84>	0
<0x85>	0
<0x86>	0
<0x87>	0
<0x88>	0
<0x89>	0
<0x8A>	0
<0x8B>	0
<0x8C>	0
<0x8D>	0
<0x8E>	0
<0x8F>	0
<0x90>	0
<0x91>	0
<0x92>	0
<0x93>	0
<0x94>	0
<0x95>	0
<0x96>	0
<0x97>	0
<0x98>	0
<0x99>	0
<0x9A>	0
<0x9B>	0
<0x9C>	0
<0x9D>	0
<0x9E>	0
<0x9F>	0
<0xA0>	0
<0xA1>	0
<0xA2>	0
<0xA3>	0
<0xA4>	0
<0xA5>	0
<0xA6>	0
<0xA7>	0
<0xA8>	0
<0xA9>	0
<0xAA>	0
<0xAB>	0
<0xAC>	0
<0xAD>	0
<0xAE>	0
<0xAF>	0
<0xB0>	0
<0xB1>	0
<0xB2>	0
<0xB3>	0
<0xB4>	0
<0xB5>	0
<0xB6>	0
<0xB7>	0
<0xB8>	0
<0xB9>	0
<0xBA>	0
<0xBB>	0
<0xBC>	0
<0xBD>	0
<0xBE>	0
<0xBF>	0
<0xC0>	0
<0xC1>	0
<0xC2>	0
<0xC3>	0
<0xC4>	0
<0xC5>	0
<0xC6>	0
<0xC7>	0
<0xC8>	0
<0xC9>	0
<0xCA>	0
<0xCB>	0
<0xCC>	0
<0xCD>	0
<0xCE>	0
<0xCF>	0
<0xD0>	0
<0xD1>	0
<0xD2>	0
<0xD3>	0
<0xD4>	0
<0xD5>	0
<0xD6>	0
<0xD7>	0
<0xD8>	0
<0xD9>	0
<0xDA>	0
<0xDB>	0
<0xDC>	0
<0xDD>	0
<0xDE>	0
<0xDF>	0
<0xE0>	0
<0xE1>	0
<0xE2>	0
<0xE3>	0
<0xE4>	0
<0xE5>	0
<0xE6>	0
<0xE7>	0
<0xE8>	0
<0xE9>	0
<0xEA>	0
<0xEB>	0
<0xEC>	0
<0xED>	0
<0xEE>	0
<0xEF>	0
<0xF0>	0
<0xF1>	0
<0xF2>	0
<0xF3>	0
<0xF4>	0
<0xF5>	0
<0xF6>	0
<0xF7>	0
<0xF8>	0
<0xF9>	0
<0xFA>	0
<0xFB>	0
<0xFC>	0
<0xFD>	0
<0xFE>	0
<0xFF>	0
▁t	-0
▁a	-1
he	-2
in	-3
re	-4
▁the	-5
on	-6
er	-7
▁s	-8
▁w	-9
at	-10
▁o	-11
en	-12
▁c	-13
is	-14
it	-15
an	-16
or	-17
▁b	-18
es	-19
▁f	-20
ed	-21
ing	-22
▁p	-23
ou	-24
▁an	-25
al	-26
▁to	-27
ar	-28
▁m	-29
▁in	-30
▁of	-31
▁d	-32
▁h	-33
as	-34
▁and	-35
ic	-36
▁th	-37
le	-38
ion	-39
om	-40
ent	-41
ll	-42
▁T	-43
▁n	-44
▁l	-45
st	-46
▁re	-47
ve	-48
▁e	-49
▁g	-50
ly	-51
ro	-52
▁be	-53
id	-54
▁I	-55
▁A	-56
ot	-57
▁S	-58
ac	-59
ut	-60
▁is	-61
▁that	-62
▁on	-63
ay	-64
et	-65
im	-66
ow	-67
am	-68
ad	-69
se	-70
▁for	-71
ig	-72
▁C	-73
ver	-74
ct	-75
▁y	-76
ld	-77
ur	-78
▁st	-79
▁u	-80
▁it	-81
▁he	-82
▁M	-83
ation	-84
ir	-85
ith	-86
▁The	-87
ce	-88
▁wh	-89
▁B	-90
▁as	-91
ter	-92
ol	-93
il	-94
▁we	-95
▁with	-96
ch	-97
▁P	-98
ill	-99
▁you	-100
▁W	-101
nd	-102
▁was	-103
▁H	-104
ke	-105
ers	-106
▁con	-107
if	-108
ate	-109
▁de	-110
her	-111
▁r	-112
ist	-113
▁D	-114
▁are	-115
ag	-116
▁at	-117
est	-118
▁R	-119
▁pro	-120
▁se	-121
ul	-122
▁ha	-123
▁F	-124
op	-125
ore	-126
ri	-127
ment	-128
▁com	-129
and	-130
us	-131
ain	-132
pp	-133
▁(	-134
ant	-135
rom	-136
igh	-137
▁N	-138
th	-139
▁ne	-140
od	-141
▁ex	-142
▁not	-143
um	-144
▁G	-145
un	-146
res	-147
▁or	-148
ab	-149
▁L	-150
os	-151
ess	-152
▁"	-153
▁v	-154
ive	-155
▁by	-156
ity	-157
ould	-158
em	-159
▁have	-160
ort	-161
qu	-162
▁“	-163
▁from	-164
▁al	-165
▁E	-166
el	-167
▁su	-168
oc	-169
art	-170
▁O	-171
▁sh	-172
▁this	-173
nt	-174
ust	-175
pe	-176
ight	-177
▁le	-178
ies	-179
▁ch	-180
end	-181
▁U	-182
ie	-183
out	-184
▁J	-185
▁ab	-186
all	-187
iv	-188
▁sa	-189
red	-190
▁pl	-191
ack	-192
ally	-193
▁has	-194
our	-195
▁go	-196
▁his	-197
ard	-198
▁j	-199
ap	-200
▁tr	-201
ome	-202
gh	-203
ear	-204
▁can	-205
ud	-206
ost	-207
▁do	-208
ak	-209
ast	-210
▁wor	-211
▁will	-212
ep	-213
▁they	-214
rou	-215
▁but	-216
ge	-217
▁k	-218
ich	-219
▁whe	-220
ide	-221
ok	-222
▁said	-223
▁who	-224
▁all	-225
ans	-226
te	-227
ther	-228
▁Th	-229
ions	-230
ame	-231
▁their	-232
▁out	-233
ial	-234
ong	-235
▁In	-236
ff	-237
ice	-238
pl	-239
age	-240
ure	-241
▁me	-242
ike	-243
act	-244
pt	-245
one	-246
ous	-247
ine	-248
▁more	-249
▁Y	-250
▁up	-251
▁ad	-252
▁K	-253
▁about	-254
ated	-255
▁-	-256
▁us	-257
ber	-258
▁te	-259
ra	-260
▁so	-261
ect	-262
▁one	-263
og	-264
ime	-265
ind	-266
ia	-267
are	-268
ue	-269
▁which	-270
▁were	-271
cc	-272
▁im	-273
▁St	-274
▁cl	-275
▁had	-276
▁comp	-277
ake	-278
ub	-279
▁would	-280
iz	-281
▁en	-282
▁int	-283
ence	-284
▁ag	-285
▁un	-286
per	-287
▁cont	-288
very	-289
▁off	-290
au	-291
so	-292
▁pe	-293
ary	-294
▁man	-295
▁been	-296
ip	-297
ign	-298
▁like	-299
ace	-300
cl	-301
▁year	-302
orm	-303
ile	-304
▁It	-305
ays	-306
▁qu	-307
ook	-308
▁per	-309
ib	-310
ven	-311
ry	-312
▁res	-313
ew	-314
ass	-315
ose	-316
ople	-317
ite	-318
able	-319
▁other	-320
ord	-321
▁sp	-322
▁your	-323
ire	-324
ail	-325
..	-326
▁some	-327
ical	-328
▁ar	-329
mer	-330
ru	-331
ks	-332
▁Ch	-333
own	-334
ations	-335
▁people	-336
ult	-337
ress	-338
▁He	-339
▁dis	-340
▁over	-341
▁there	-342
▁bec	-343
ance	-344
ount	-345
▁also	-346
ough	-347
▁just	-348
▁new	-349
▁app	-350
▁them	-351
▁her	-352
▁part	-353
ree	-354
▁than	-355
ase	-356
fter	-357
ond	-358
▁what	-359
port	-360
▁when	-361
▁sc	-362
▁V	-363
ach	-364
int	-365
▁kn	-366
▁no	-367
av	-368
ction	-369
▁its	-370
▁any	-371
▁time	-372
ink	-373
▁tw	-374
irst	-375
ian	-376
▁if	-377
▁into	-378
reat	-379
du	-380
."	-381
ick	-382
▁rec	-383
ens	-384
▁pre	-385
▁get	-386
▁my	-387
▁work	-388
ound	-389
vel	-390
form	-391
ory	-392
ang	-393
oll	-394
fe	-395
ition	-396
ings	-397
ish	-398
.”	-399
▁Wh	-400
lic	-401
ren	-402
ident	-403
▁As	-404
ors	-405
ove	-406
ob	-407
wn	-408
▁she	-409
ates	-410
ause	-411
▁play	-412
▁ro	-413
▁our	-414
▁first	-415
ark	-416
ade	-417
vers	-418
amp	-419
▁pol	-420
▁after	-421
nder	-422
ious	-423
ild	-424
▁him	-425
▁could	-426
▁how	-427
▁acc	-428
ons	-429
rit	-430
▁two	-431
ov	-432
▁fe	-433
▁pr	-434
ne	-435
aw	-436
sw	-437
ict	-438
▁spe	-439
ise	-440
▁This	-441
▁att	-442
▁comm	-443
▁only	-444
▁bl	-445
hed	-446
▁We	-447
ces	-448
,”	-449
ood	-450
▁You	-451
▁act	-452
hing	-453
▁ser	-454
ull	-455
▁bet	-456
▁co	-457
we	-458
▁But	-459
ater	-460
ning	-461
ck	-462
ft	-463
oy	-464
▁back	-465
▁most	-466
▁des	-467
▁ass	-468
clud	-469
round	-470
▁am	-471
▁pos	-472
▁under	-473
rough	-474
▁did	-475
swer	-476
▁$	-477
▁cons	-478
▁need	-479
▁po	-480
xt	-481
ents	-482
ual	-483
▁And	-484
rent	-485
▁Un	-486
▁again	-487
▁because	-488
▁–	-489
▁inc	-490
day	-491
▁want	-492
▁ind	-493
sel	-494
tern	-495
man	-496
iss	-497
▁know	-498
▁inv	-499
▁years	-500
▁think	-501
ting	-502
ments	-503
ublic	-504
▁—	-505
fore	-506
▁sec	-507
old	-508
▁add	-509
▁even	-510
▁now	-511
,"	-512
ced	-513
▁see	-514
uch	-515
▁make	-516
ec	-517
urn	-518
▁em	-519
▁these	-520
ased	-521
pect	-522
▁answer	-523
▁[	-524
ject	-525
▁every	-526
▁where	-527
▁supp	-528
ational	-529
ating	-530
ock	-531
).	-532
iew	-533
ible	-534
▁bu	-535
ily	-536
▁ev	-537
▁Tr	-538
row	-539
vern	-540
▁look	-541
▁An	-542
The	-543
▁being	-544
▁rel	-545
▁dif	-546
lect	-547
▁does	-548
rib	-549
▁don	-550
▁dec	-551
▁may	-552
▁fl	-553
▁many	-554
▁includ	-555
ied	-556
▁rem	-557
▁call	-558
ason	-559
▁then	-560
ited	-561
aking	-562
▁state	-563
lp	-564
▁imp	-565
▁way	-566
▁reg	-567
▁right	-568
ific	-569
uring	-570
meric	-571
ath	-572
▁through	-573
▁should	-574
▁pres	-575
oth	-576
ative	-577
▁ph	-578
ump	-579
ont	-580
ser	-581
▁sy	-582
▁long	-583
hes	-584
▁much	-585
other	-586
▁help	-587
hen	-588
▁say	-589
ollow	-590
▁show	-591
ities	-592
les	-593
▁very	-594
tle	-595
als	-596
▁well	-597
▁prov	-598
ener	-599
▁last	-600
▁count	-601
ower	-602
▁Re	-603
▁down	-604
ty	-605
▁those	-606
▁bel	-607
ics	-608
arg	-609
▁br	-610
▁Americ	-611
▁New	-612
ange	-613
▁use	-614
ince	-615
▁quest	-616
▁end	-617
istant	-618
arly	-619
▁own	-620
▁def	-621
ward	-622
und	-623
erson	-624
ts	-625
▁ke	-626
ters	-627
ved	-628
ful	-629
▁before	-630
▁ent	-631
omet	-632
),	-633
ife	-634
up	-635
▁govern	-636
▁mon	-637
▁such	-638
ues	-639
ble	-640
gr	-641
▁sm	-642
oun	-643
▁fin	-644
olog	-645
▁start	-646
▁made	-647
▁report	-648
ually	-649
▁stud	-650
tain	-651
▁Al	-652
rest	-653
▁sub	-654
ix	-655
▁team	-656
▁If	-657
▁while	-658
ms	-659
▁gu	-660
▁world	-661
▁sur	-662
▁follow	-663
▁ac	-664
its	-665
ys	-666
▁produ	-667
ility	-668
ell	-669
ists	-670
▁gr	-671
▁going	-672
▁inst	-673
▁good	-674
alk	-675
▁eff	-676
▁set	-677
cess	-678
gan	-679
ek	-680
ars	-681
roup	-682
▁lead	-683
ween	-684
ork	-685
land	-686
...	-687
▁min	-688
▁against	-689
stem	-690
▁num	-691
ank	-692
ving	-693
imes	-694
com	-695
▁det	-696
▁point	-697
ax	-698
ool	-699
▁same	-700
▁col	-701
▁diffe	-702
ng	-703
▁find	-704
ier	-705
▁str	-706
▁between	-707
▁ob	-708
▁sim	-709
ism	-710
io	-711
▁trans	-712
ution	-713
▁cr	-714
▁game	-715
▁still	-716
arch	-717
cy	-718
▁'	-719
▁inter	-720
▁take	-721
illion	-722
self	-723
air	-724
▁high	-725
▁Is	-726
ures	-727
▁says	-728
ever	-729
ask	-730
▁Ar	-731
▁offic	-732
ah	-733
▁They	-734
▁giv	-735
▁Le	-736
gg	-737
▁though	-738
▁ter	-739
ten	-740
hip	-741
way	-742
ci	-743
▁ed	-744
▁op	-745
▁De	-746
atch	-747
ner	-748
uss	-749
▁Com	-750
▁law	-751
▁sign	-752
▁used	-753
read	-754
▁poss	-755
▁spec	-756
led	-757
▁inte	-758
ather	-759
any	-760
▁government	-761
▁inform	-762
▁somet	-763
ted	-764
▁mem	-765
cer	-766
ros	-767
velop	-768
▁Sh	-769
▁found	-770
ames	-771
▁around	-772
▁three	-773
ves	-774
▁For	-775
ouse	-776
▁exp	-777
▁group	-778
cent	-779
ave	-780
az	-781
▁Cl	-782
▁med	-783
▁wom	-784
ale	-785
▁There	-786
▁ins	-787
cept	-788
▁fam	-789
▁run	-790
ets	-791
▁Ass	-792
oot	-793
▁ext	-794
▁question	-795
▁sl	-796
▁system	-797
▁car	-798
▁real	-799
▁expl	-800
▁Q	-801
▁cour	-802
▁both	-803
▁person	-804
▁ret	-805
▁hand	-806
ense	-807
con	-808
▁exper	-809
ying	-810
▁fact	-811
▁gener	-812
irect	-813
▁support	-814
ins	-815
co	-816
.[	-817
▁day	-818
ines	-819
ph	-820
▁cap	-821
▁here	-822
▁rep	-823
▁mod	-824
▁happ	-825
▁public	-826
▁great	-827
▁So	-828
▁really	-829
▁sent	-830
alth	-831
ton	-832
ices	-833
▁during	-834
▁cur	-835
ular	-836
ered	-837
▁fr	-838
▁read	-839
▁User	-840
▁That	-841
▁lit	-842
ivers	-843
▁cor	-844
▁conf	-845
uth	-846
▁Trump	-847
pr	-848
▁cre	-849
akes	-850
ision	-851
▁How	-852
▁art	-853
▁fil	-854
view	-855
ically	-856
▁.	-857
min	-858
▁information	-859
▁develop	-860
get	-861
rem	-862
med	-863
▁On	-864
▁month	-865
▁loc	-866
chool	-867
▁cent	-868
▁Fr	-869
ages	-870
iet	-871
ared	-872
▁war	-873
▁iss	-874
ention	-875
▁since	-876
aj	-877
▁told	-878
--	-879
▁big	-880
▁Ad	-881
▁leg	-882
▁Pro	-883
▁ref	-884
▁pass	-885
ording	-886
ness	-887
der	-888
the	-889
ene	-890
▁week	-891
▁few	-892
▁polit	-893
▁cle	-894
▁different	-895
▁each	-896
▁requ	-897
▁comple	-898
▁contin	-899
ric	-900
ives	-901
▁Jo	-902
yp	-903
anc	-904
▁resp	-905
ash	-906
▁belie	-907
▁rele	-908
bers	-909
ex	-910
▁too	-911
▁lot	-912
ized	-913
▁char	-914
▁che	-915
▁life	-916
ience	-917
▁ask	-918
▁child	-919
ik	-920
▁inf	-921
▁put	-922
ata	-923
▁something	-924
▁soc	-925
▁another	-926
▁plan	-927
ute	-928
▁second	-929
▁=	-930
▁At	-931
▁met	-932
ody	-933
▁opp	-934
▁might	-935
ize	-936
▁head	-937
▁invest	-938
▁commun	-939
ient	-940
▁task	-941
uc	-942
▁bo	-943
▁tell	-944
by	-945
▁things	-946
iness	-947
▁dep	-948
ants	-949
riend	-950
▁power	-951
▁mov	-952
▁best	-953
arl	-954
▁bus	-955
▁step	-956
▁Rep	-957
ned	-958
▁far	-959
▁next	-960
thing	-961
ross	-962
ital	-963
▁number	-964
▁home	-965
ield	-966
▁disc	-967
▁feel	-968
ple	-969
ret	-970
orn	-971
▁come	-972
▁‘	-973
▁direct	-974
ways	-975
▁never	-976
▁dem	-977
▁adv	-978
▁camp	-979
▁What	-980
▁allow	-981
▁open	-982
▁place	-983
▁Bl	-984
▁She	-985
▁give	-986
▁mark	-987
ired	-988
▁import	-989
ug	-990
▁got	-991
▁US	-992
▁pop	-993
▁let	-994
▁incre	-995
▁hum	-996
gy	-997
▁result	-998
ully	-999
▁vot	-1000
istr	-1001
son	-1002
▁stand	-1003
▁seem	-1004
▁care	-1005
▁including	-1006
ately	-1007
▁percent	-1008
aim	-1009
▁pri	-1010
▁gl	-1011
▁without	-1012
▁build	-1013
gram	-1014
chn	-1015
▁main	-1016
▁proble	-1017
▁country	-1018
▁given	-1019
▁post	-1020
▁contro	-1021
▁av	-1022
less	-1023
oney	-1024
▁called	-1025
ral	-1026
▁Be	-1027
▁Ind	-1028
▁bro	-1029
osed	-1030
▁hard	-1031
▁top	-1032
▁dr	-1033
inal	-1034
oss	-1035
▁el	-1036
▁When	-1037
▁appro	-1038
▁four	-1039
conom	-1040
▁ide	-1041
▁tri	-1042
▁possible	-1043
ama	-1044
▁less	-1045
▁sit	-1046
▁partic	-1047
ished	-1048
▁mil	-1049
▁fun	-1050
▁While	-1051
▁sol	-1052
app	-1053
▁case	-1054
▁million	-1055
ided	-1056
▁rest	-1057
▁little	-1058
▁interest	-1059
ify	-1060
rap	-1061
▁better	-1062
ina	-1063
▁Z	-1064
▁Se	-1065
▁must	-1066
rat	-1067
▁beh	-1068
▁Assistant	-1069
▁old	-1070
▁Ph	-1071
stand	-1072
▁turn	-1073
▁form	-1074
ably	-1075
ider	-1076
uro	-1077
▁season	-1078
ature	-1079
▁recent	-1080
▁writ	-1081
ised	-1082
▁school	-1083
▁process	-1084
▁val	-1085
▁always	-1086
▁left	-1087
▁American	-1088
▁ann	-1089
▁keep	-1090
▁Can	-1091
ling	-1092
▁small	-1093
▁using	-1094
to	-1095
▁prev	-1096
ency	-1097
▁United	-1098
arge	-1099
▁effect	-1100
ruct	-1101
▁move	-1102
ajor	-1103
ract	-1104
rence	-1105
▁perform	-1106
ains	-1107
▁serv	-1108
We	-1109
ger	-1110
▁didn	-1111
be	-1112
▁police	-1113
▁attack	-1114
hn	-1115
▁win	-1116
▁list	-1117
ology	-1118
orth	-1119
▁following	-1120
ode	-1121
iver	-1122
▁bre	-1123
ases	-1124
▁program	-1125
reen	-1126
▁test	-1127
ird	-1128
▁data	-1129
ined	-1130
▁econom	-1131
▁company	-1132
leg	-1133
▁news	-1134
ption	-1135
▁To	-1136
▁book	-1137
__	-1138
▁pay	-1139
▁prom	-1140
ural	-1141
▁dri	-1142
▁sk	-1143
iversity	-1144
uck	-1145
▁story	-1146
▁Ob	-1147
▁organ	-1148
▁level	-1149
▁var	-1150
ready	-1151
outh	-1152
▁change	-1153
▁friend	-1154
▁mat	-1155
▁mean	-1156
▁eas	-1157
▁money	-1158
ides	-1159
line	-1160
▁current	-1161
▁city	-1162
▁class	-1163
used	-1164
▁hist	-1165
erv	-1166
▁ele	-1167
▁president	-1168
▁later	-1169
ploy	-1170
▁rece	-1171
▁unt	-1172
▁vis	-1173
▁Go	-1174
▁why	-1175
▁techn	-1176
▁Chr	-1177
▁women	-1178
ians	-1179
▁Con	-1180
▁claim	-1181
▁word	-1182
▁All	-1183
mit	-1184
▁prof	-1185
▁pur	-1186
side	-1187
▁talk	-1188
▁--	-1189
▁job	-1190
▁health	-1191
▁design	-1192
▁important	-1193
▁business	-1194
▁Sp	-1195
▁already	-1196
▁official	-1197
here	-1198
icle	-1199
▁family	-1200
▁chang	-1201
▁cost	-1202
▁thing	-1203
▁major	-1204
crib	-1205
aff	-1206
▁,	-1207
▁expect	-1208
▁grow	-1209
▁away	-1210
▁est	-1211
▁assistant	-1212
▁doesn	-1213
▁Sc	-1214
ample	-1215
▁project	-1216
▁One	-1217
It	-1218
▁kill	-1219
▁Mr	-1220
ury	-1221
ards	-1222
ertain	-1223
ope	-1224
▁Pl	-1225
▁men	-1226
ead	-1227
uthor	-1228
▁rese	-1229
▁John	-1230
▁const	-1231
▁past	-1232
▁pat	-1233
▁large	-1234
ending	-1235
ailed	-1236
ured	-1237
▁making	-1238
ron	-1239
▁happen	-1240
▁able	-1241
ior	-1242
▁aff	-1243
aign	-1244
▁oper	-1245
▁Mar	-1246
▁five	-1247
▁air	-1248
▁free	-1249
▁days	-1250
aring	-1251
fully	-1252
ional	-1253
ission	-1254
▁record	-1255
▁edit	-1256
ccess	-1257
▁water	-1258
▁name	-1259
ney	-1260
▁Pres	-1261
wit	-1262
▁enough	-1263
ained	-1264
▁elect	-1265
els	-1266
▁mar	-1267
augh	-1268
acy	-1269
▁No	-1270
ern	-1271
br	-1272
ries	-1273
ator	-1274
▁least	-1275
▁Or	-1276
▁Euro	-1277
ane	-1278
urity	-1279
▁came	-1280
▁polic	-1281
ptions	-1282
ality	-1283
ived	-1284
ified	-1285
▁until	-1286
▁dist	-1287
▁tax	-1288
ush	-1289
eral	-1290
▁ve	-1291
ister	-1292
ley	-1293
ream	-1294
▁kind	-1295
▁campaign	-1296
▁Republic	-1297
ox	-1298
▁working	-1299
arent	-1300
▁es	-1301
▁often	-1302
▁view	-1303
▁human	-1304
▁fore	-1305
▁vide	-1306
alf	-1307
▁del	-1308
▁charac	-1309
▁become	-1310
▁intern	-1311
▁sing	-1312
ware	-1313
▁May	-1314
ering	-1315
itive	-1316
▁political	-1317
▁took	-1318
ued	-1319
▁wr	-1320
ands	-1321
▁la	-1322
aining	-1323
bs	-1324
ror	-1325
▁AI	-1326
▁understand	-1327
▁equ	-1328
iqu	-1329
▁return	-1330
ison	-1331
▁order	-1332
ising	-1333
▁times	-1334
ann	-1335
▁Sy	-1336
ony	-1337
▁won	-1338
▁line	-1339
ott	-1340
eng	-1341
▁sever	-1342
▁prote	-1343
▁young	-1344
ember	-1345
▁Ex	-1346
▁Mc	-1347
▁Te	-1348
▁Russ	-1349
▁deal	-1350
▁After	-1351
▁night	-1352
oad	-1353
▁full	-1354
▁actually	-1355
▁known	-1356
▁event	-1357
▁mus	-1358
▁lear	-1359
▁former	-1360
gin	-1361
iol	-1362
tt	-1363
most	-1364
▁With	-1365
▁States	-1366
▁Am	-1367
▁complete	-1368
▁crit	-1369
▁occ	-1370
▁hour	-1371
▁President	-1372
▁fund	-1373
▁product	-1374
ization	-1375
year	-1376
lish	-1377
▁according	-1378
▁ever	-1379
▁having	-1380
▁children	-1381
work	-1382
▁Dem	-1383
ories	-1384
▁several	-1385
▁Europe	-1386
▁invol	-1387
▁dev	-1388
ither	-1389
idd	-1390
aps	-1391
▁games	-1392
▁cho	-1393
▁pot	-1394
aken	-1395
▁deb	-1396
▁likely	-1397
▁fac	-1398
wh	-1399
▁appear	-1400
▁/	-1401
ocrat	-1402
▁doing	-1403
enn	-1404
rop	-1405
ential	-1406
▁means	-1407
iam	-1408
ball	-1409
▁Col	-1410
▁whether	-1411
▁eng	-1412
▁meet	-1413
idence	-1414
▁bit	-1415
▁press	-1416
not	-1417
iber	-1418
▁short	-1419
▁stop	-1420
▁side	-1421
▁par	-1422
mber	-1423
▁early	-1424
▁ra	-1425
▁went	-1426
▁York	-1427
▁members	-1428
uture	-1429
oint	-1430
▁reason	-1431
▁social	-1432
▁seen	-1433
▁orig	-1434
une	-1435
ched	-1436
▁However	-1437
▁market	-1438
▁within	-1439
lf	-1440
ulation	-1441
▁hold	-1442
▁Br	-1443
ivid	-1444
nect	-1445
sh	-1446
Th	-1447
▁success	-1448
▁today	-1449
▁sure	-1450
ggest	-1451
ots	-1452
▁media	-1453
ium	-1454
▁sentence	-1455
▁activ	-1456
▁example	-1457
▁milit	-1458
raft	-1459
ended	-1460
▁along	-1461
▁based	-1462
▁Im	-1463
ially	-1464
artment	-1465
iting	-1466
▁prop	-1467
▁Eng	-1468
ats	-1469
iously	-1470
▁control	-1471
▁Obama	-1472
▁vers	-1473
▁film	-1474
ee	-1475
▁certain	-1476
ipp	-1477
▁concer	-1478
▁suggest	-1479
for	-1480
▁ca	-1481
▁University	-1482
▁author	-1483
▁players	-1484
rew	-1485
oci	-1486
iving	-1487
▁Not	-1488
▁Co	-1489
ster	-1490
▁local	-1491
▁problem	-1492
▁months	-1493
▁fight	-1494
ague	-1495
▁arg	-1496
▁light	-1497
▁once	-1498
urs	-1499
ones	-1500
let	-1501
▁asked	-1502
por	-1503
▁fa	-1504
▁ant	-1505
▁food	-1506
▁done	-1507
▁thought	-1508
▁Pol	-1509
▁investig	-1510
ances	-1511
iron	-1512
▁among	-1513
iety	-1514
uff	-1515
▁provide	-1516
vert	-1517
▁i	-1518
gress	-1519
▁course	-1520
ences	-1521
▁makes	-1522
▁Pr	-1523
ails	-1524
aged	-1525
▁across	-1526
ourn	-1527
▁ident	-1528
ailable	-1529
▁strong	-1530
empt	-1531
▁non	-1532
▁future	-1533
ald	-1534
▁priv	-1535
ER	-1536
orld	-1537
verage	-1538
ortun	-1539
▁others	-1540
imate	-1541
▁Christ	-1542
ederal	-1543
▁#	-1544
▁]	-1545
▁State	-1546
▁viol	-1547
arm	-1548
▁area	-1549
▁community	-1550
urther	-1551
▁Fl	-1552
▁&	-1553
ober	-1554
▁lim	-1555
▁video	-1556
itions	-1557
gether	-1558
▁together	-1559
▁death	-1560
ler	-1561
ored	-1562
▁series	-1563
▁*	-1564
▁tot	-1565
utes	-1566
▁sex	-1567
▁yet	-1568
▁House	-1569
▁getting	-1570
book	-1571
ensive	-1572
▁creat	-1573
back	-1574
▁prob	-1575
▁cut	-1576
▁believe	-1577
▁Min	-1578
erman	-1579
▁statement	-1580
▁announ	-1581
raph	-1582
ai	-1583
▁national	-1584
itional	-1585
▁describ	-1586
aster	-1587
▁indust	-1588
reet	-1589
ustom	-1590
▁experience	-1591
▁cond	-1592
ividual	-1593
▁sour	-1594
▁reported	-1595
irl	-1596
▁yes	-1597
▁love	-1598
though	-1599
▁true	-1600
▁Your	-1601
▁Cent	-1602
▁hig	-1603
ashing	-1604
▁Brit	-1605
▁foc	-1606
▁low	-1607
▁Now	-1608
▁employ	-1609
▁started	-1610
▁close	-1611
▁bas	-1612
▁anal	-1613
▁Comm	-1614
▁Don	-1615
▁trying	-1616
ference	-1617
▁mult	-1618
▁pract	-1619
▁goal	-1620
▁Step	-1621
▁present	-1622
▁bat	-1623
▁mom	-1624
▁Canad	-1625
ination	-1626
▁available	-1627
▁Qu	-1628
▁looking	-1629
▁issue	-1630
▁account	-1631
ON	-1632
▁history	-1633
▁Sen	-1634
▁near	-1635
orts	-1636
lished	-1637
▁Gr	-1638
cher	-1639
ability	-1640
ype	-1641
▁Democrat	-1642
▁America	-1643
selves	-1644
uly	-1645
▁clear	-1646
▁comes	-1647
ids	-1648
ief	-1649
▁Ne	-1650
▁proper	-1651
inc	-1652
ilar	-1653
ring	-1654
▁repres	-1655
▁impro	-1656
▁key	-1657
▁sum	-1658
▁Do	-1659
wards	-1660
▁individual	-1661
▁court	-1662
use	-1663
▁party	-1664
raw	-1665
▁trad	-1666
▁review	-1667
▁pub	-1668
▁net	-1669
▁access	-1670
ument	-1671
my	-1672
▁Bro	-1673
▁idea	-1674
▁X	-1675
▁woman	-1676
▁half	-1677
▁almost	-1678
▁ago	-1679
▁rul	-1680
▁Cal	-1681
▁commit	-1682
of	-1683
reed	-1684
osp	-1685
▁live	-1686
rodu	-1687
fic	-1688
▁added	-1689
reme	-1690
▁North	-1691
▁Sec	-1692
unch	-1693
▁someone	-1694
ators	-1695
▁phot	-1696
ef	-1697
▁black	-1698
▁neg	-1699
▁taken	-1700
▁bene	-1701
▁compet	-1702
▁isn	-1703
ged	-1704
▁six	-1705
▁My	-1706
▁Su	-1707
par	-1708
▁bad	-1709
▁sw	-1710
▁anything	-1711
▁consider	-1712
▁behind	-1713
▁Man	-1714
▁Just	-1715
▁face	-1716
▁miss	-1717
▁Car	-1718
▁War	-1719
▁These	-1720
angu	-1721
▁body	-1722
.,	-1723
▁...	-1724
othes	-1725
▁er	-1726
▁saying	-1727
viron	-1728
▁hit	-1729
▁Ste	-1730
put	-1731
▁Af	-1732
▁His	-1733
▁entire	-1734
rael	-1735
aid	-1736
▁Ed	-1737
▁discuss	-1738
▁single	-1739
cially	-1740
eb	-1741
▁ris	-1742
▁connect	-1743
▁military	-1744
nes	-1745
▁land	-1746
▁outside	-1747
ales	-1748
▁fall	-1749
▁foot	-1750
▁house	-1751
aper	-1752
▁z	-1753
▁Part	-1754
AT	-1755
▁ener	-1756
▁Ge	-1757
▁aut	-1758
▁special	-1759
▁vict	-1760
▁Inst	-1761
▁Gu	-1762
▁states	-1763
▁redu	-1764
rote	-1765
▁:	-1766
▁specific	-1767
▁ce	-1768
ministr	-1769
▁fav	-1770
▁City	-1771
▁Ab	-1772
▁quick	-1773
▁wanted	-1774
▁Bar	-1775
atic	-1776
▁cult	-1777
▁App	-1778
▁taking	-1779
▁mess	-1780
rug	-1781
▁prot	-1782
olution	-1783
▁mor	-1784
▁try	-1785
▁By	-1786
▁rather	-1787
▁World	-1788
▁prem	-1789
▁comb	-1790
▁colle	-1791
▁security	-1792
▁threat	-1793
▁study	-1794
▁Dep	-1795
▁Some	-1796
▁mind	-1797
amed	-1798
▁bill	-1799
▁Me	-1800
▁National	-1801
▁Har	-1802
▁jo	-1803
▁music	-1804
▁cou	-1805
▁ear	-1806
▁Dav	-1807
▁Med	-1808
aces	-1809
uation	-1810
▁front	-1811
ert	-1812
cing	-1813
▁faith	-1814
ept	-1815
▁Res	-1816
sy	-1817
▁signific	-1818
igr	-1819
witter	-1820
▁common	-1821
▁Aust	-1822
▁wa	-1823
▁bring	-1824
uge	-1825
rect	-1826
▁policy	-1827
ows	-1828
▁room	-1829
inton	-1830
▁repl	-1831
▁tra	-1832
▁due	-1833
▁player	-1834
▁space	-1835
▁compan	-1836
▁attempt	-1837
asing	-1838
▁German	-1839
ches	-1840
▁break	-1841
▁above	-1842
▁Israel	-1843
▁watch	-1844
▁coun	-1845
▁enc	-1846
ming	-1847
▁Jan	-1848
go	-1849
▁feat	-1850
▁South	-1851
▁article	-1852
ply	-1853
▁typ	-1854
▁sense	-1855
▁custom	-1856
off	-1857
now	-1858
fer	-1859
▁decision	-1860
▁mass	-1861
▁ey	-1862
ung	-1863
▁create	-1864
▁protect	-1865
ively	-1866
elt	-1867
ashington	-1868
▁similar	-1869
▁further	-1870
▁character	-1871
▁hours	-1872
▁else	-1873
▁field	-1874
▁points	-1875
▁relations	-1876
▁amount	-1877
▁energy	-1878
▁Pe	-1879
▁role	-1880
▁research	-1881
cle	-1882
▁either	-1883
▁students	-1884
▁decl	-1885
yn	-1886
ST	-1887
▁third	-1888
▁infl	-1889
vironment	-1890
▁action	-1891
▁red	-1892
▁released	-1893
▁sus	-1894
▁pret	-1895
▁China	-1896
ently	-1897
▁larg	-1898
▁sound	-1899
▁nothing	-1900
▁begin	-1901
▁Washington	-1902
▁coming	-1903
ana	-1904
▁fig	-1905
▁anim	-1906
▁words	-1907
▁exist	-1908
▁however	-1909
ried	-1910
▁deter	-1911
▁probably	-1912
▁playing	-1913
▁service	-1914
▁issues	-1915
ape	-1916
sc	-1917
▁rights	-1918
▁stri	-1919
▁wrote	-1920
▁self	-1921
▁tre	-1922
oon	-1923
ran	-1924
▁lab	-1925
lling	-1926
▁super	-1927
▁final	-1928
▁conv	-1929
▁langu	-1930
iday	-1931
▁federal	-1932
▁Clinton	-1933
▁imm	-1934
ivil	-1935
▁fire	-1936
▁friends	-1937
▁white	-1938
▁became	-1939
▁whole	-1940
▁Acc	-1941
▁seems	-1942
▁chall	-1943
▁targ	-1944
mb	-1945
▁dam	-1946
.)	-1947
▁doc	-1948
▁began	-1949
▁total	-1950
iod	-1951
▁pick	-1952
pite	-1953
▁exec	-1954
iding	-1955
▁building	-1956
▁compl	-1957
▁profess	-1958
IN	-1959
att	-1960
▁ground	-1961
sec	-1962
▁everything	-1963
pecially	-1964
▁significant	-1965
▁position	-1966
▁development	-1967
lease	-1968
af	-1969
▁companies	-1970
bo	-1971
clus	-1972
step	-1973
▁office	-1974
▁meas	-1975
▁officials	-1976
ibility	-1977
▁tem	-1978
----	-1979
▁include	-1980
▁ban	-1981
▁treat	-1982
▁himself	-1983
ilt	-1984
ery	-1985
▁Dr	-1986
▁countries	-1987
▁cand	-1988
▁gen	-1989
▁init	-1990
ww	-1991
//	-1992
▁tit	-1993
▁En	-1994
obal	-1995
▁below	-1996
ades	-1997
▁Intern	-1998
▁pain	-1999
amer	-2000
▁matter	-2001
aced	-2002
▁general	-2003
▁stat	-2004
ficult	-2005
▁leaders	-2006
ttp	-2007
aul	-2008
".	-2009
ograph	-2010
▁ball	-2011
▁gun	-2012
▁played	-2013
▁represent	-2014
like	-2015
ypothes	-2016
ogn	-2017
irt	-2018
▁evidence	-2019
▁address	-2020
▁continue	-2021
▁rad	-2022
▁dou	-2023
▁Will	-2024
▁bar	-2025
▁needs	-2026
▁itself	-2027
▁walk	-2028
▁ste	-2029
head	-2030
▁hope	-2031
▁themselves	-2032
▁phys	-2033
iddle	-2034
▁difficult	-2035
arlier	-2036
▁agree	-2037
ze	-2038
▁wasn	-2039
▁+	-2040
▁needed	-2041
reg	-2042
▁groups	-2043
yle	-2044
▁running	-2045
▁girl	-2046
BC	-2047
▁West	-2048
▁version	-2049
▁interview	-2050
▁respons	-2051
▁text	-2052
▁benef	-2053
▁simply	-2054
ribut	-2055
me	-2056
▁appe	-2057
ypothesis	-2058
▁dest	-2059
pro	-2060
ender	-2061
play	-2062
▁dom	-2063
ote	-2064
▁cop	-2065
▁Here	-2066
ham	-2067
▁Ke	-2068
ights	-2069
ift	-2070
▁saw	-2071
▁object	-2072
eks	-2073
▁mag	-2074
lim	-2075
▁late	-2076
▁mot	-2077
umb	-2078
▁lat	-2079
▁deep	-2080
atur	-2081
ival	-2082
://	-2083
▁ap	-2084
▁everyone	-2085
arter	-2086
▁shows	-2087
▁administr	-2088
▁cannot	-2089
isc	-2090
**	-2091
▁legal	-2092
cil	-2093
▁release	-2094
▁charg	-2095
",	-2096
▁pie	-2097
▁changes	-2098
ateg	-2099
▁Face	-2100
▁instead	-2101
▁Sm	-2102
▁industry	-2103
▁lo	-2104
▁inj	-2105
▁Mich	-2106
▁value	-2107
▁drug	-2108
▁suff	-2109
istic	-2110
▁period	-2111
▁White	-2112
onse	-2113
▁lost	-2114
eter	-2115
omes	-2116
ruction	-2117
ournal	-2118
▁jud	-2119
▁express	-2120
▁div	-2121
▁wrong	-2122
ique	-2123
▁abs	-2124
oring	-2125
epend	-2126
osing	-2127
▁Mus	-2128
atural	-2129
▁Twitter	-2130
▁cir	-2131
▁pretty	-2132
▁parent	-2133
▁Em	-2134
▁especially	-2135
AR	-2136
▁potential	-2137
su	-2138
den	-2139
▁focus	-2140
▁Oct	-2141
▁works	-2142
▁environment	-2143
▁comput	-2144
▁track	-2145
▁consum	-2146
▁Let	-2147
key	-2148
▁News	-2149
▁ep	-2150
▁educ	-2151
▁block	-2152
▁subject	-2153
ached	-2154
▁necess	-2155
where	-2156
▁relig	-2157
▁accept	-2158
time	-2159
▁minutes	-2160
▁site	-2161
cial	-2162
ogle	-2163
iment	-2164
ager	-2165
▁weeks	-2166
▁El	-2167
▁age	-2168
▁original	-2169
▁Per	-2170
▁economic	-2171
irm	-2172
▁Aug	-2173
ament	-2174
body	-2175
▁billion	-2176
oph	-2177
▁Sept	-2178
aut	-2179
action	-2180
hern	-2181
ns	-2182
▁stay	-2183
▁March	-2184
▁quite	-2185
ients	-2186
▁recently	-2187
▁)	-2188
▁check	-2189
▁popular	-2190
▁boy	-2191
lam	-2192
▁questions	-2193
▁di	-2194
ancial	-2195
▁According	-2196
▁moment	-2197
▁online	-2198
▁Cong	-2199
▁election	-2200
medi	-2201
val	-2202
▁candid	-2203
▁prim	-2204
▁Facebook	-2205
▁held	-2206
ole	-2207
▁opportun	-2208
▁alleg	-2209
AN	-2210
▁soon	-2211
iple	-2212
▁share	-2213
ularly	-2214
▁shoot	-2215
overed	-2216
▁host	-2217
▁pred	-2218
▁defin	-2219
uary	-2220
▁led	-2221
▁higher	-2222
ctor	-2223
▁More	-2224
ends	-2225
asons	-2226
▁impact	-2227
oid	-2228
ien	-2229
▁sold	-2230
▁personal	-2231
▁Des	-2232
▁store	-2233
▁forward	-2234
▁webs	-2235
▁justify	-2236
IS	-2237
▁reve	-2238
▁longer	-2239
oke	-2240
apan	-2241
right	-2242
omm	-2243
str	-2244
urch	-2245
▁Red	-2246
▁wind	-2247
lt	-2248
text	-2249
alt	-2250
▁Syri	-2251
aterial	-2252
▁cell	-2253
ude	-2254
Wh	-2255
▁function	-2256
joy	-2257
▁cred	-2258
itution	-2259
hod	-2260
▁technology	-2261
ault	-2262
▁June	-2263
aging	-2264
▁language	-2265
rel	-2266
anger	-2267
ners	-2268
▁den	-2269
▁movie	-2270
▁port	-2271
▁received	-2272
▁July	-2273
▁aud	-2274
lement	-2275
▁mention	-2276
▁relationship	-2277
▁God	-2278
▁services	-2279
▁rev	-2280
▁Republican	-2281
fect	-2282
▁vol	-2283
▁problems	-2284
▁vote	-2285
▁Apr	-2286
▁Options	-2287
▁famil	-2288
de	-2289
▁dead	-2290
▁respect	-2291
▁stru	-2292
aving	-2293
____	-2294
▁results	-2295
▁Off	-2296
ills	-2297
▁increase	-2298
▁Department	-2299
▁response	-2300
▁price	-2301
ires	-2302
▁type	-2303
▁rate	-2304
==	-2305
ij	-2306
che	-2307
▁ways	-2308
iff	-2309
▁Austral	-2310
▁base	-2311
▁indic	-2312
▁anyone	-2313
OR	-2314
▁involved	-2315
hood	-2316
na	-2317
▁comment	-2318
▁scient	-2319
iven	-2320
ilities	-2321
lex	-2322
▁contract	-2323
bit	-2324
▁living	-2325
▁risk	-2326
▁created	-2327
In	-2328
▁Ag	-2329
▁international	-2330
ises	-2331
▁cal	-2332
▁heart	-2333
▁Google	-2334
▁pack	-2335
▁Act	-2336
over	-2337
▁applic	-2338
▁|	-2339
isl	-2340
▁Japan	-2341
▁code	-2342
▁earlier	-2343
▁Count	-2344
▁speak	-2345
▁shot	-2346
▁target	-2347
▁Cour	-2348
▁ur	-2349
▁Friday	-2350
▁capt	-2351
▁expected	-2352
▁correct	-2353
▁announced	-2354
▁force	-2355
uel	-2356
ples	-2357
▁upd	-2358
▁Geor	-2359
▁exc	-2360
▁coll	-2361
ule	-2362
▁soft	-2363
▁inside	-2364
He	-2365
aur	-2366
▁situation	-2367
▁April	-2368
St	-2369
▁surpr	-2370
▁mother	-2371
▁http	-2372
ray	-2373
▁log	-2374
bor	-2375
▁cases	-2376
▁exact	-2377
duct	-2378
▁Congress	-2379
▁{	-2380
▁takes	-2381
▁answering	-2382
▁content	-2383
▁favor	-2384
▁civil	-2385
▁First	-2386
▁song	-2387
▁poll	-2388
▁Mond	-2389
▁David	-2390
▁private	-2391
▁killed	-2392
▁Her	-2393
▁terms	-2394
ese	-2395
haps	-2396
▁average	-2397
▁estab	-2398
▁club	-2399
▁et	-2400
▁Cont	-2401
▁influ	-2402
ael	-2403
▁capital	-2404
▁Calif	-2405
▁leave	-2406
izing	-2407
▁search	-2408
▁Gl	-2409
▁easy	-2410
▁execut	-2411
cri	-2412
▁road	-2413
▁arrest	-2414
▁Cor	-2415
atives	-2416
▁Che	-2417
ips	-2418
▁dog	-2419
▁anti	-2420
▁staff	-2421
▁buy	-2422
▁steps	-2423
▁sen	-2424
tee	-2425
▁associ	-2426
▁nearly	-2427
▁squ	-2428
ino	-2429
▁Then	-2430
▁Russia	-2431
ought	-2432
icro	-2433
▁affect	-2434
face	-2435
▁enjoy	-2436
▁struct	-2437
▁global	-2438
ops	-2439
▁model	-2440
▁phone	-2441
▁worked	-2442
▁@	-2443
▁British	-2444
▁fem	-2445
▁Tues	-2446
apt	-2447
▁material	-2448
▁director	-2449
▁father	-2450
▁various	-2451
▁faithfully	-2452
lev	-2453
itiz	-2454
▁broad	-2455
▁decided	-2456
▁provided	-2457
▁arri	-2458
▁terror	-2459
▁January	-2460
▁Even	-2461
▁European	-2462
▁gave	-2463
▁request	-2464
▁Pal	-2465
omb	-2466
ging	-2467
unt	-2468
▁Americans	-2469
▁town	-2470
▁pict	-2471
▁collect	-2472
lin	-2473
cast	-2474
▁lack	-2475
iction	-2476
okes	-2477
▁financial	-2478
▁worth	-2479
▁ability	-2480
▁tal	-2481
▁reports	-2482
oor	-2483
wo	-2484
▁Wed	-2485
osition	-2486
▁simple	-2487
▁Tuesday	-2488
▁areas	-2489
▁mid	-2490
▁Monday	-2491
▁recogn	-2492
ites	-2493
▁population	-2494
▁fans	-2495
▁goes	-2496
▁member	-2497
ological	-2498
▁user	-2499
▁users	-2500
lled	-2501
▁travel	-2502
▁immedi	-2503
▁lives	-2504
▁respond	-2505
▁happened	-2506
pped	-2507
▁require	-2508
ovember	-2509
This	-2510
rought	-2511
▁San	-2512
▁published	-2513
istrict	-2514
▁weap	-2515
▁Afric	-2516
▁September	-2517
AS	-2518
oto	-2519
▁Sund	-2520
▁events	-2521
ha	-2522
▁tou	-2523
▁bur	-2524
▁nation	-2525
▁cy	-2526
▁source	-2527
▁English	-2528
▁slow	-2529
▁Spe	-2530
▁whose	-2531
▁emer	-2532
▁couple	-2533
▁oil	-2534
▁workers	-2535
▁regard	-2536
ees	-2537
▁chance	-2538
oved	-2539
▁positive	-2540
arily	-2541
▁extreme	-2542
▁Feb	-2543
▁Californ	-2544
ky	-2545
▁Paul	-2546
▁Hill	-2547
▁Je	-2548
▁TV	-2549
▁performance	-2550
▁King	-2551
▁fail	-2552
▁bank	-2553
▁hop	-2554
▁turned	-2555
▁meeting	-2556
▁plans	-2557
estern	-2558
▁ill	-2559
▁particip	-2560
▁cause	-2561
▁career	-2562
▁Sch	-2563
▁separ	-2564
▁November	-2565
▁currently	-2566
idered	-2567
▁bi	-2568
uses	-2569
▁introdu	-2570
chie	-2571
▁felt	-2572
▁quickly	-2573
rown	-2574
▁foreign	-2575
▁Fin	-2576
aled	-2577
▁neigh	-2578
▁approach	-2579
▁Par	-2580
▁hands	-2581
▁wide	-2582
▁Thurs	-2583
▁Wednes	-2584
▁August	-2585
▁natural	-2586
mon	-2587
ety	-2588
▁fre	-2589
▁helps	-2590
▁Canada	-2591
▁match	-2592
▁dig	-2593
based	-2594
oud	-2595
▁premise	-2596
▁Sw	-2597
▁Ang	-2598
▁Court	-2599
▁norm	-2600
▁visit	-2601
▁California	-2602
▁offer	-2603
▁cover	-2604
▁ens	-2605
▁pull	-2606
ground	-2607
▁Wednesday	-2608
ma	-2609
▁numbers	-2610
▁Thursday	-2611
▁administration	-2612
▁growth	-2613
acher	-2614
▁method	-2615
▁teams	-2616
▁ord	-2617
▁spent	-2618
▁pers	-2619
▁improve	-2620
▁Mark	-2621
▁Post	-2622
▁page	-2623
▁considered	-2624
ani	-2625
▁heard	-2626
▁hon	-2627
▁mis	-2628
][	-2629
arth	-2630
ams	-2631
cember	-2632
▁Bo	-2633
ech	-2634
▁<	-2635
avy	-2636
▁secret	-2637
▁huge	-2638
▁race	-2639
rain	-2640
▁ess	-2641
cul	-2642
ume	-2643
aily	-2644
▁wants	-2645
▁engine	-2646
▁via	-2647
fl	-2648
▁October	-2649
ny	-2650
▁Of	-2651
eed	-2652
▁tool	-2653
▁lower	-2654
▁gets	-2655
order	-2656
atory	-2657
ledge	-2658
▁hypothesis	-2659
▁loss	-2660
▁hot	-2661
ctions	-2662
▁size	-2663
▁website	-2664
▁production	-2665
▁economy	-2666
▁UK	-2667
▁thous	-2668
▁built	-2669
▁knew	-2670
vertise	-2671
▁Sunday	-2672
▁included	-2673
▁vo	-2674
▁repe	-2675
ES	-2676
sequ	-2677
▁Cons	-2678
ceed	-2679
ification	-2680
▁reach	-2681
force	-2682
▁network	-2683
down	-2684
▁legisl	-2685
ession	-2686
▁detailed	-2687
▁Black	-2688
▁Islam	-2689
▁tried	-2690
▁Pat	-2691
▁Russian	-2692
You	-2693
▁behav	-2694
▁board	-2695
▁December	-2696
▁victim	-2697
▁Park	-2698
idents	-2699
bl	-2700
▁£	-2701
▁round	-2702
▁written	-2703
▁prep	-2704
▁attention	-2705
▁hor	-2706
ED	-2707
agement	-2708
▁veh	-2709
▁fear	-2710
▁perfect	-2711
▁Since	-2712
▁forces	-2713
▁Kore	-2714
▁allowed	-2715
▁contact	-2716
▁morning	-2717
▁particular	-2718
EN	-2719
▁From	-2720
▁trade	-2721
▁looks	-2722
aker	-2723
▁Gener	-2724
▁movement	-2725
orters	-2726
vent	-2727
?"	-2728
▁medical	-2729
load	-2730
imately	-2731
come	-2732
▁bud	-2733
▁son	-2734
▁fell	-2735
▁meaning	-2736
set	-2737
▁leader	-2738
▁conclud	-2739
▁progress	-2740
hold	-2741
▁email	-2742
▁Read	-2743
ondon	-2744
▁previous	-2745
anks	-2746
▁Int	-2747
▁independ	-2748
▁brought	-2749
▁ver	-2750
▁talking	-2751
ened	-2752
ibly	-2753
▁speed	-2754
▁box	-2755
lear	-2756
▁parents	-2757
▁fair	-2758
rench	-2759
ining	-2760
▁named	-2761
▁demand	-2762
ening	-2763
▁exam	-2764
▁rules	-2765
field	-2766
uk	-2767
aph	-2768
oo	-2769
——	-2770
aly	-2771
▁Rom	-2772
cies	-2773
vil	-2774
?”	-2775
▁blood	-2776
room	-2777
▁star	-2778
inks	-2779
▁term	-2780
▁doll	-2781
raz	-2782
▁features	-2783
chers	-2784
igence	-2785
ecause	-2786
unk	-2787
▁rac	-2788
▁ment	-2789
alled	-2790
undred	-2791
raq	-2792
▁Iran	-2793
yond	-2794
▁critic	-2795
iers	-2796
gest	-2797
▁Times	-2798
▁achie	-2799
▁Mo	-2800
▁reb	-2801
aves	-2802
▁citiz	-2803
ysis	-2804
▁obser	-2805
▁Satur	-2806
▁Sim	-2807
▁safe	-2808
▁sn	-2809
mine	-2810
▁Sand	-2811
▁Party	-2812
▁demon	-2813
▁image	-2814
ges	-2815
▁und	-2816
icles	-2817
▁fast	-2818
▁coach	-2819
”.	-2820
▁training	-2821
▁systems	-2822
▁option	-2823
▁pen	-2824
▁learn	-2825
▁sens	-2826
ico	-2827
▁multiple	-2828
bed	-2829
▁latest	-2830
▁link	-2831
▁draw	-2832
▁upon	-2833
▁prevent	-2834
▁maintain	-2835
▁paper	-2836
▁Iraq	-2837
▁County	-2838
▁London	-2839
▁details	-2840
light	-2841
ped	-2842
▁communic	-2843
▁strugg	-2844
eth	-2845
▁Center	-2846
▁addition	-2847
▁range	-2848
▁wond	-2849
▁levels	-2850
▁Soc	-2851
▁convers	-2852
▁hear	-2853
▁seek	-2854
▁Ser	-2855
uments	-2856
▁described	-2857
▁Bill	-2858
inese	-2859
▁India	-2860
ban	-2861
▁occur	-2862
);	-2863
▁title	-2864
▁Saturday	-2865
idge	-2866
ruary	-2867
▁Police	-2868
imin	-2869
▁carry	-2870
▁IS	-2871
aries	-2872
▁Street	-2873
erc	-2874
▁leading	-2875
▁mach	-2876
urd	-2877
▁investigation	-2878
lying	-2879
▁liber	-2880
▁lay	-2881
het	-2882
▁choice	-2883
▁region	-2884
▁parts	-2885
▁Donald	-2886
vey	-2887
illed	-2888
▁conduct	-2889
▁Mon	-2890
▁context	-2891
ps	-2892
▁Mor	-2893
▁increasing	-2894
tr	-2895
iant	-2896
ibr	-2897
▁sort	-2898
▁Answer	-2899
▁band	-2900
▁serious	-2901
▁Michael	-2902
There	-2903
▁table	-2904
▁screen	-2905
▁Tur	-2906
▁card	-2907
▁Tex	-2908
▁particularly	-2909
rences	-2910
▁Senate	-2911
▁Other	-2912
▁seven	-2913
hel	-2914
▁looked	-2915
▁except	-2916
ospital	-2917
▁quality	-2918
▁required	-2919
▁resour	-2920
oming	-2921
▁claims	-2922
ris	-2923
▁surv	-2924
▁usually	-2925
▁Up	-2926
uf	-2927
▁kids	-2928
▁football	-2929
▁products	-2930
ux	-2931
istan	-2932
▁effort	-2933
▁Net	-2934
▁February	-2935
▁completely	-2936
▁society	-2937
▁item	-2938
▁document	-2939
▁Phil	-2940
▁officers	-2941
▁inn	-2942
abor	-2943
▁prison	-2944
▁McC	-2945
If	-2946
ara	-2947
▁sle	-2948
▁directly	-2949
▁middle	-2950
pir	-2951
▁Star	-2952
▁extra	-2953
oses	-2954
estion	-2955
▁writing	-2956
▁Add	-2957
▁East	-2958
▁eight	-2959
sych	-2960
rast	-2961
AC	-2962
▁message	-2963
▁}	-2964
▁majority	-2965
▁Coun	-2966
▁Trans	-2967
▁regul	-2968
▁modern	-2969
▁quarter	-2970
▁additional	-2971
▁Comp	-2972
▁James	-2973
bum	-2974
ida	-2975
itch	-2976
▁circ	-2977
irth	-2978
▁Why	-2979
▁sometimes	-2980
▁plat	-2981
fort	-2982
▁purp	-2983
entially	-2984
▁Most	-2985
▁exactly	-2986
anced	-2987
▁Chinese	-2988
▁stories	-2989
▁options	-2990
hib	-2991
▁gas	-2992
▁negative	-2993
isions	-2994
▁despite	-2995
ari	-2996
▁poor	-2997
▁journal	-2998
▁rock	-2999
▁interesting	-3000
▁dro	-3001
▁science	-3002
▁jobs	-3003
▁reading	-3004
▁spokes	-3005
ett	-3006
▁Yes	-3007
▁doub	-3008
▁saf	-3009
reedom	-3010
▁clean	-3011
rowd	-3012
coin	-3013
▁prior	-3014
▁practice	-3015
▁histor	-3016
▁ult	-3017
ously	-3018
▁died	-3019
lection	-3020
▁remains	-3021
▁opportunity	-3022
aught	-3023
▁Sci	-3024
▁Over	-3025
▁ones	-3026
▁giving	-3027
IC	-3028
▁immigr	-3029
▁finally	-3030
▁towards	-3031
▁climate	-3032
▁costs	-3033
▁remain	-3034
▁purch	-3035
utions	-3036
▁hundred	-3037
▁conserv	-3038
mp	-3039
▁paid	-3040
▁attacks	-3041
▁continued	-3042
iation	-3043
▁cele	-3044
▁park	-3045
▁increased	-3046
iminal	-3047
▁summer	-3048
▁thinking	-3049
▁sexual	-3050
AL	-3051
▁wife	-3052
▁growing	-3053
▁transl	-3054
▁protest	-3055
▁Jack	-3056
▁William	-3057
▁write	-3058
▁recomm	-3059
▁includes	-3060
▁standard	-3061
▁imag	-3062
▁Every	-3063
▁select	-3064
▁Rich	-3065
▁education	-3066
icks	-3067
▁ready	-3068
▁danger	-3069
▁fix	-3070
▁hous	-3071
▁cat	-3072
▁camer	-3073
▁computer	-3074
▁although	-3075
▁stuff	-3076
▁pan	-3077
▁Rec	-3078
▁cross	-3079
▁aren	-3080
▁obv	-3081
▁League	-3082
▁II	-3083
▁changed	-3084
▁Play	-3085
▁aw	-3086
▁biggest	-3087
using	-3088
▁Muslim	-3089
aughter	-3090
▁rob	-3091
▁Rober	-3092
▁French	-3093
▁concept	-3094
uclear	-3095
▁guy	-3096
▁sat	-3097
▁intell	-3098
▁Republicans	-3099
ables	-3100
▁scene	-3101
▁path	-3102
▁Jew	-3103
▁violence	-3104
▁Many	-3105
▁Indian	-3106
▁x	-3107
▁consist	-3108
▁throughout	-3109
▁damage	-3110
▁Well	-3111
▁defense	-3112
arr	-3113
▁Sent	-3114
▁implement	-3115
▁complex	-3116
▁Dis	-3117
▁rout	-3118
▁pressure	-3119
astic	-3120
▁Prem	-3121
▁starting	-3122
▁overall	-3123
▁characters	-3124
oul	-3125
vertisement	-3126
▁refer	-3127
▁showed	-3128
▁designed	-3129
▁calls	-3130
▁largest	-3131
omp	-3132
▁Democratic	-3133
▁resear	-3134
▁student	-3135
▁disapp	-3136
▁safety	-3137
▁date	-3138
▁spot	-3139
▁laws	-3140
akers	-3141
▁fit	-3142
▁il	-3143
zz	-3144
FL	-3145
▁culture	-3146
reng	-3147
▁epis	-3148
▁chief	-3149
ago	-3150
inary	-3151
ford	-3152
▁ple	-3153
▁software	-3154
oper	-3155
▁figure	-3156
airs	-3157
▁Stud	-3158
▁couldn	-3159
▁efforts	-3160
▁Minister	-3161
▁comments	-3162
ension	-3163
▁counter	-3164
▁Cr	-3165
icated	-3166
▁reality	-3167
▁ten	-3168
▁challeng	-3169
mitted	-3170
▁center	-3171
IT	-3172
▁stage	-3173
▁certainly	-3174
▁>	-3175
▁Bel	-3176
▁related	-3177
▁piece	-3178
aches	-3179
▁generate	-3180
▁wouldn	-3181
▁speech	-3182
▁Although	-3183
▁Apple	-3184
▁Last	-3185
icient	-3186
bur	-3187
▁mob	-3188
▁album	-3189
▁alone	-3190
▁beyond	-3191
▁unf	-3192
▁letter	-3193
▁Air	-3194
▁Tom	-3195
▁mill	-3196
▁difference	-3197
▁wall	-3198
▁School	-3199
icted	-3200
adem	-3201
imum	-3202
▁eyes	-3203
▁happy	-3204
urt	-3205
▁century	-3206
enge	-3207
▁sell	-3208
▁Texas	-3209
▁corpor	-3210
▁opt	-3211
▁cast	-3212
▁Mart	-3213
▁opin	-3214
▁Earth	-3215
▁clos	-3216
▁twe	-3217
▁nature	-3218
▁platform	-3219
▁moved	-3220
▁dark	-3221
▁tour	-3222
wise	-3223
anch	-3224
hest	-3225
▁reasons	-3226
OP	-3227
gen	-3228
anation	-3229
yl	-3230
▁property	-3231
▁impl	-3232
▁crowd	-3233
▁analy	-3234
itute	-3235
▁bal	-3236
▁Green	-3237
▁books	-3238
▁Mex	-3239
▁moving	-3240
asc	-3241
▁hom	-3242
iles	-3243
▁tro	-3244
▁officer	-3245
▁sil	-3246
▁plant	-3247
▁contribut	-3248
▁Associ	-3249
▁perhaps	-3250
▁cool	-3251
▁conditions	-3252
▁effects	-3253
▁subst	-3254
iable	-3255
▁necessary	-3256
▁drive	-3257
▁immediately	-3258
▁grad	-3259
arian	-3260
▁Given	-3261
▁ut	-3262
▁Day	-3263
▁appears	-3264
itor	-3265
▁passed	-3266
atever	-3267
▁followed	-3268
▁Cap	-3269
dom	-3270
▁gone	-3271
sp	-3272
▁Germany	-3273
▁Tor	-3274
▁Super	-3275
▁People	-3276
▁command	-3277
ampions	-3278
▁Ben	-3279
▁suspect	-3280
▁TH	-3281
▁remember	-3282
▁score	-3283
▁guys	-3284
▁George	-3285
ION	-3286
craft	-3287
▁organization	-3288
▁mix	-3289
▁deg	-3290
▁beginning	-3291
rief	-3292
▁receive	-3293
▁analysis	-3294
▁relative	-3295
▁thousands	-3296
▁nom	-3297
▁sal	-3298
▁Art	-3299
board	-3300
▁arch	-3301
▁actions	-3302
ressed	-3303
ustr	-3304
▁physical	-3305
▁encour	-3306
▁Our	-3307
▁tur	-3308
▁cris	-3309
▁toward	-3310
▁Get	-3311
▁During	-3312
▁eventually	-3313
▁Like	-3314
▁battle	-3315
▁demonstr	-3316
▁(@	-3317
▁hy	-3318
▁touch	-3319
▁device	-3320
▁origin	-3321
▁file	-3322
more	-3323
▁helped	-3324
▁Ant	-3325
▁knowledge	-3326
▁brother	-3327
▁unique	-3328
▁launch	-3329
▁performing	-3330
wood	-3331
ivity	-3332
ression	-3333
▁green	-3334
etro	-3335
▁emot	-3336
▁fan	-3337
▁bott	-3338
Ph	-3339
▁Rob	-3340
aint	-3341
▁aim	-3342
▁individuals	-3343
ocked	-3344
olute	-3345
▁spending	-3346
▁esc	-3347
itation	-3348
▁Reg	-3349
▁voters	-3350
▁explain	-3351
owers	-3352
▁ahead	-3353
▁college	-3354
▁income	-3355
▁Because	-3356
OS	-3357
▁uses	-3358
ston	-3359
BI	-3360
▁note	-3361
oes	-3362
chan	-3363
▁families	-3364
agon	-3365
▁Jer	-3366
▁blog	-3367
▁limited	-3368
▁Syria	-3369
roy	-3370
▁Smith	-3371
venue	-3372
▁celebr	-3373
▁agency	-3374
▁streng	-3375
▁Govern	-3376
add	-3377
▁religious	-3378
▁stra	-3379
▁Question	-3380
▁Ham	-3381
▁Val	-3382
▁ign	-3383
▁La	-3384
▁frequ	-3385
mar	-3386
▁shown	-3387
▁confir	-3388
▁Serv	-3389
▁debate	-3390
▁Democrats	-3391
▁Two	-3392
▁prec	-3393
▁brain	-3394
▁failed	-3395
▁conference	-3396
▁gives	-3397
yan	-3398
rupt	-3399
▁compared	-3400
omen	-3401
just	-3402
erve	-3403
▁budget	-3404
▁beaut	-3405
men	-3406
▁yourself	-3407
urance	-3408
▁citizens	-3409
aling	-3410
berg	-3411
▁schools	-3412
ares	-3413
▁throw	-3414
ports	-3415
▁door	-3416
onents	-3417
▁street	-3418
▁alleged	-3419
▁avoid	-3420
▁presidential	-3421
▁High	-3422
▁powerful	-3423
▁International	-3424
▁meant	-3425
▁EU	-3426
▁lif	-3427
▁allows	-3428
ufact	-3429
nown	-3430
▁estim	-3431
ken	-3432
enty	-3433
▁Union	-3434
levision	-3435
new	-3436
orks	-3437
▁nuclear	-3438
▁autom	-3439
▁extremely	-3440
band	-3441
▁crime	-3442
ev	-3443
▁trust	-3444
▁birth	-3445
▁aware	-3446
▁swe	-3447
▁executive	-3448
▁nice	-3449
▁feet	-3450
▁myself	-3451
EC	-3452
▁feature	-3453
▁charge	-3454
▁central	-3455
▁feed	-3456
▁promot	-3457
▁provides	-3458
▁disp	-3459
iance	-3460
▁Brown	-3461
resh	-3462
▁ang	-3463
▁Wind	-3464
▁forced	-3465
▁league	-3466
▁Bre	-3467
▁developed	-3468
bon	-3469
They	-3470
▁color	-3471
▁jump	-3472
▁Alex	-3473
iar	-3474
istance	-3475
▁ideas	-3476
clusion	-3477
▁Angel	-3478
▁Tod	-3479
▁activity	-3480
▁criminal	-3481
▁Australia	-3482
▁easily	-3483
amb	-3484
▁sche	-3485
orney	-3486
▁maybe	-3487
▁Bu	-3488
icit	-3489
opp	-3490
iring	-3491
▁larger	-3492
▁places	-3493
▁Council	-3494
▁Us	-3495
▁copy	-3496
▁illeg	-3497
▁Please	-3498
▁temper	-3499
....	-3500
▁Sentence	-3501
▁benefits	-3502
▁rap	-3503
▁treatment	-3504
▁dise	-3505
▁England	-3506
▁web	-3507
uing	-3508
▁weapons	-3509
▁firm	-3510
▁senior	-3511
▁truth	-3512
▁altern	-3513
▁candidate	-3514
▁conflic	-3515
▁appeared	-3516
▁Mac	-3517
▁continues	-3518
▁solution	-3519
▁customers	-3520
ength	-3521
▁susp	-3522
SA	-3523
▁pus	-3524
▁goals	-3525
▁grand	-3526
▁spir	-3527
iny	-3528
▁emb	-3529
iverse	-3530
▁signed	-3531
▁Ber	-3532
▁France	-3533
▁successful	-3534
▁clearly	-3535
▁highly	-3536
▁Def	-3537
ishing	-3538
▁asking	-3539
▁previously	-3540
▁crisis	-3541
▁primary	-3542
▁teacher	-3543
AM	-3544
sey	-3545
▁greater	-3546
▁politics	-3547
▁spread	-3548
▁Gold	-3549
):	-3550
▁Scott	-3551
▁display	-3552
Ch	-3553
ounds	-3554
dd	-3555
▁Op	-3556
▁traff	-3557
ube	-3558
▁caused	-3559
▁choose	-3560
▁decades	-3561
attle	-3562
▁reached	-3563
orter	-3564
▁Oh	-3565
▁Sam	-3566
▁voice	-3567
▁attract	-3568
▁rates	-3569
▁drink	-3570
riage	-3571
▁female	-3572
yr	-3573
▁hospital	-3574
▁Flor	-3575
▁resources	-3576
▁subs	-3577
OT	-3578
▁expand	-3579
▁Advertisement	-3580
▁print	-3581
vin	-3582
▁ensure	-3583
secut	-3584
▁General	-3585
▁reform	-3586
▁sources	-3587
▁style	-3588
▁policies	-3589
▁har	-3590
itely	-3591
▁species	-3592
▁straight	-3593
ocks	-3594
▁psych	-3595
▁studies	-3596
▁smart	-3597
▁projects	-3598
▁lines	-3599
▁spend	-3600
▁cities	-3601
antly	-3602
▁incident	-3603
uty	-3604
▁Christian	-3605
▁minor	-3606
ville	-3607
alse	-3608
lands	-3609
part	-3610
▁Law	-3611
▁kept	-3612
ords	-3613
vere	-3614
▁intelligence	-3615
▁rule	-3616
▁fighting	-3617
▁sleep	-3618
▁peace	-3619
que	-3620
▁lik	-3621
▁knows	-3622
▁fine	-3623
▁noted	-3624
▁gold	-3625
change	-3626
ifying	-3627
encies	-3628
▁organiz	-3629
aby	-3630
while	-3631
▁mist	-3632
▁fully	-3633
▁Follow	-3634
ero	-3635
▁sales	-3636
▁patients	-3637
▁•	-3638
▁categ	-3639
▁leaving	-3640
▁measure	-3641
▁apparent	-3642
▁location	-3643
iced	-3644
▁lic	-3645
▁Ro	-3646
▁advant	-3647
▁credit	-3648
▁drop	-3649
itness	-3650
▁pun	-3651
',	-3652
▁Bit	-3653
As	-3654
ica	-3655
▁Lou	-3656
etic	-3657
olic	-3658
▁wait	-3659
▁seemed	-3660
▁liter	-3661
▁beg	-3662
▁save	-3663
▁explanation	-3664
▁traditional	-3665
osh	-3666
aming	-3667
▁regular	-3668
▁creating	-3669
▁status	-3670
ET	-3671
▁manufact	-3672
▁Image	-3673
▁Under	-3674
ya	-3675
box	-3676
inn	-3677
▁Also	-3678
▁reflect	-3679
▁challenge	-3680
ki	-3681
▁manager	-3682
▁determin	-3683
▁Another	-3684
▁programs	-3685
▁scen	-3686
▁adding	-3687
▁names	-3688
▁happens	-3689
aud	-3690
ipped	-3691
▁integr	-3692
roll	-3693
wide	-3694
▁ice	-3695
pri	-3696
▁Arab	-3697
▁Port	-3698
▁slight	-3699
▁shooting	-3700
term	-3701
What	-3702
IA	-3703
▁charges	-3704
oles	-3705
▁employees	-3706
▁sun	-3707
▁mount	-3708
▁station	-3709
ategy	-3710
agn	-3711
▁mur	-3712
▁eat	-3713
▁adop	-3714
▁animals	-3715
▁send	-3716
▁eye	-3717
▁vill	-3718
▁restaur	-3719
▁draft	-3720
▁Sun	-3721
▁trou	-3722
▁born	-3723
▁chem	-3724
ented	-3725
▁rare	-3726
icago	-3727
iled	-3728
earch	-3729
▁appl	-3730
▁Sub	-3731
▁ended	-3732
▁cry	-3733
▁feeling	-3734
▁minister	-3735
▁blue	-3736
▁adult	-3737
see	-3738
▁owners	-3739
inated	-3740
▁researchers	-3741
ae	-3742
▁picture	-3743
▁structure	-3744
▁produce	-3745
▁wat	-3746
▁concerns	-3747
▁Are	-3748
▁answ	-3749
▁Mod	-3750
ste	-3751
▁laun	-3752
▁behavior	-3753
▁supposed	-3754
▁normal	-3755
▁Florida	-3756
▁Once	-3757
▁ir	-3758
▁Internet	-3759
▁vac	-3760
▁values	-3761
▁authorities	-3762
.'	-3763
▁agreement	-3764
▁Franc	-3765
▁Out	-3766
iders	-3767
▁calling	-3768
uman	-3769
▁understanding	-3770
▁beat	-3771
▁television	-3772
▁aspect	-3773
▁haven	-3774
AP	-3775
▁produced	-3776
▁fat	-3777
▁mentioned	-3778
ingly	-3779
▁judge	-3780
▁rise	-3781
▁Bush	-3782
▁claimed	-3783
▁learning	-3784
▁Mike	-3785
▁enforce	-3786
miss	-3787
ribution	-3788
▁surround	-3789
▁mechan	-3790
▁basic	-3791
▁Health	-3792
▁raised	-3793
▁commer	-3794
▁cru	-3795
▁Great	-3796
▁influence	-3797
vant	-3798
▁acqu	-3799
▁favorite	-3800
--------	-3801
▁stream	-3802
no	-3803
ado	-3804
▁mostly	-3805
▁Pre	-3806
▁weight	-3807
▁prices	-3808
▁absolute	-3809
mission	-3810
▁bed	-3811
ties	-3812
▁seeing	-3813
▁offered	-3814
▁wild	-3815
mark	-3816
▁whom	-3817
▁tick	-3818
ags	-3819
orthern	-3820
▁north	-3821
▁Bay	-3822
▁accur	-3823
▁hair	-3824
▁Frank	-3825
▁miles	-3826
▁train	-3827
▁Both	-3828
rs	-3829
vest	-3830
igned	-3831
▁shut	-3832
▁pros	-3833
▁push	-3834
▁arm	-3835
onent	-3836
▁actual	-3837
▁brief	-3838
▁Instead	-3839
▁funding	-3840
itude	-3841
outhern	-3842
.’	-3843
▁enem	-3844
▁Sl	-3845
EO	-3846
▁showing	-3847
▁freedom	-3848
▁eth	-3849
▁believed	-3850
▁Mat	-3851
▁district	-3852
▁Chicago	-3853
▁Press	-3854
EL	-3855
▁arrested	-3856
inger	-3857
OM	-3858
▁ge	-3859
▁holding	-3860
▁lawy	-3861
▁Western	-3862
▁Del	-3863
iences	-3864
▁Mil	-3865
▁generally	-3866
▁Think	-3867
rey	-3868
▁restr	-3869
olf	-3870
rial	-3871
▁determine	-3872
▁independent	-3873
▁confirmed	-3874
istry	-3875
▁becomes	-3876
▁cars	-3877
ota	-3878
▁propos	-3879
▁revealed	-3880
▁weekend	-3881
▁Hillary	-3882
▁Francis	-3883
▁dollars	-3884
▁mission	-3885
www	-3886
acing	-3887
▁wonder	-3888
▁residents	-3889
▁whatever	-3890
▁professional	-3891
ona	-3892
▁types	-3893
rav	-3894
▁Commission	-3895
▁disco	-3896
▁devices	-3897
oti	-3898
▁enter	-3899
▁establish	-3900
▁responsible	-3901
rian	-3902
▁qual	-3903
▁Mal	-3904
▁massive	-3905
▁Secret	-3906
▁benefit	-3907
▁Ac	-3908
▁Chris	-3909
▁records	-3910
▁male	-3911
mittee	-3912
▁rank	-3913
▁Sanders	-3914
▁parties	-3915
udd	-3916
▁Att	-3917
▁der	-3918
▁memory	-3919
▁Vir	-3920
▁agreed	-3921
arliam	-3922
▁Pri	-3923
aked	-3924
orial	-3925
rol	-3926
▁install	-3927
roid	-3928
oe	-3929
▁pattern	-3930
isher	-3931
▁Ter	-3932
▁chair	-3933
mat	-3934
▁dire	-3935
▁Liber	-3936
▁learned	-3937
bert	-3938
▁Gree	-3939
org	-3940
▁kick	-3941
▁willing	-3942
▁strategy	-3943
▁runs	-3944
▁AP	-3945
▁surface	-3946
▁Bur	-3947
▁ship	-3948
▁Mad	-3949
▁highest	-3950
▁watching	-3951
▁hero	-3952
▁Lab	-3953
▁neighbor	-3954
▁operations	-3955
▁Wall	-3956
▁served	-3957
▁Robert	-3958
▁critical	-3959
▁mer	-3960
▁application	-3961
orrow	-3962
▁tend	-3963
▁etc	-3964
▁associated	-3965
ugg	-3966
▁dream	-3967
▁Thom	-3968
▁images	-3969
estic	-3970
arliament	-3971
▁interested	-3972
▁daughter	-3973
▁posted	-3974
▁trial	-3975
▁lose	-3976
han	-3977
▁Britain	-3978
▁offers	-3979
▁background	-3980
▁effective	-3981
▁please	-3982
▁border	-3983
▁wearing	-3984
▁core	-3985
ios	-3986
cell	-3987
▁virt	-3988
pper	-3989
▁Canadian	-3990
▁elements	-3991
▁defe	-3992
▁conclude	-3993
▁separate	-3994
▁assault	-3995
▁section	-3996
▁condition	-3997
▁teach	-3998
ulf	-3999
▁heavy	-4000
▁camera	-4001
▁opinion	-4002
▁purpose	-4003
▁brand	-4004
ossible	-4005
▁politic	-4006
▁join	-4007
▁investment	-4008
▁digital	-4009
▁Rel	-4010
▁opposition	-4011
pre	-4012
▁transport	-4013
isf	-4014
gency	-4015
But	-4016
iful	-4017
▁debt	-4018
▁onto	-4019
▁daily	-4020
▁advoc	-4021
▁tells	-4022
▁replace	-4023
▁south	-4024
▁Ver	-4025
illing	-4026
ront	-4027
▁Who	-4028
▁rat	-4029
▁occas	-4030
coming	-4031
▁contain	-4032
▁detect	-4033
▁Security	-4034
▁Justice	-4035
▁Korea	-4036
▁Cup	-4037
▁standing	-4038
▁becoming	-4039
icip	-4040
▁cook	-4041
▁cells	-4042
▁Wil	-4043
▁Palest	-4044
▁Micro	-4045
▁opening	-4046
▁items	-4047
gu	-4048
▁Hall	-4049
▁plays	-4050
▁Any	-4051
▁stre	-4052
▁Big	-4053
▁harm	-4054
▁Bank	-4055
▁theory	-4056
▁Que	-4057
za	-4058
”,	-4059
▁reduce	-4060
▁Leg	-4061
▁Despite	-4062
▁defend	-4063
▁shared	-4064
ocr	-4065
▁Commun	-4066
▁returned	-4067
ipe	-4068
▁serve	-4069
uana	-4070
itable	-4071
▁achieve	-4072
usion	-4073
▁limit	-4074
known	-4075
▁sitting	-4076
well	-4077
▁proposed	-4078
▁opened	-4079
▁girls	-4080
▁novel	-4081
▁NFL	-4082
▁fresh	-4083
That	-4084
▁winning	-4085
And	-4086
▁spl	-4087
▁obtain	-4088
▁worse	-4089
▁activities	-4090
▁thus	-4091
ING	-4092
house	-4093
win	-4094
▁amb	-4095
▁audience	-4096
ius	-4097
▁initial	-4098
▁bottom	-4099
▁coal	-4100
▁explained	-4101
▁floor	-4102
cont	-4103
▁Direct	-4104
▁photo	-4105
▁instance	-4106
point	-4107
▁Office	-4108
▁ded	-4109
▁church	-4110
▁assum	-4111
▁Church	-4112
soft	-4113
▁ran	-4114
uries	-4115
▁management	-4116
▁Committee	-4117
inct	-4118
▁suggests	-4119
do	-4120
▁Their	-4121
▁Today	-4122
tered	-4123
OU	-4124
▁stated	-4125
ribute	-4126
▁episode	-4127
▁Prof	-4128
zen	-4129
▁Miss	-4130
▁unlike	-4131
▁marriage	-4132
▁cancer	-4133
▁electric	-4134
▁vehicle	-4135
izes	-4136
▁Hel	-4137
▁partners	-4138
▁transfer	-4139
ript	-4140
▁destroy	-4141
▁Japanese	-4142
lant	-4143
▁machine	-4144
▁Mary	-4145
iller	-4146
▁notice	-4147
▁die	-4148
▁millions	-4149
▁older	-4150
▁hearing	-4151
▁active	-4152
▁helpful	-4153
▁easier	-4154
▁comfort	-4155
ictions	-4156
▁Cle	-4157
▁Los	-4158
▁hus	-4159
▁belief	-4160
rees	-4161
▁Sur	-4162
▁nine	-4163
▁smaller	-4164
oly	-4165
azing	-4166
▁Found	-4167
iling	-4168
________	-4169
▁traffic	-4170
▁appropri	-4171
▁advantage	-4172
▁exerc	-4173
ady	-4174
▁Sal	-4175
▁Those	-4176
▁putting	-4177
▁strik	-4178
▁scientists	-4179
▁length	-4180
▁illegal	-4181
▁reject	-4182
▁bomb	-4183
====	-4184
▁See	-4185
▁recommend	-4186
ears	-4187
▁Jim	-4188
▁hundreds	-4189
▁Jeff	-4190
▁controvers	-4191
ocal	-4192
acity	-4193
actions	-4194
resp	-4195
▁Sil	-4196
▁basis	-4197
▁earth	-4198
isted	-4199
▁solid	-4200
ID	-4201
oms	-4202
eline	-4203
la	-4204
▁competition	-4205
▁Windows	-4206
▁driving	-4207
▁follows	-4208
▁waiting	-4209
ography	-4210
ada	-4211
▁Johnson	-4212
▁department	-4213
▁driver	-4214
▁Medic	-4215
equ	-4216
▁Met	-4217
▁Id	-4218
istics	-4219
▁radio	-4220
▁UN	-4221
▁supported	-4222
▁Good	-4223
▁internet	-4224
▁double	-4225
▁legislation	-4226
▁experien	-4227
▁Sup	-4228
ijuana	-4229
▁presence	-4230
▁Tim	-4231
▁accused	-4232
gers	-4233
▁Inc	-4234
▁labor	-4235
▁Inter	-4236
▁providing	-4237
ander	-4238
▁coverage	-4239
▁Richard	-4240
▁construction	-4241
AD	-4242
▁closed	-4243
▁dangerous	-4244
▁insurance	-4245
RE	-4246
▁announce	-4247
▁documents	-4248
▁Uk	-4249
ait	-4250
icy	-4251
▁Fox	-4252
andon	-4253
▁Mag	-4254
▁requires	-4255
▁load	-4256
▁Jud	-4257
▁sett	-4258
▁Photo	-4259
▁incred	-4260
▁compar	-4261
▁vs	-4262
▁photos	-4263
owl	-4264
▁Mer	-4265
▁conversation	-4266
▁Based	-4267
▁kid	-4268
bing	-4269
odes	-4270
▁Game	-4271
▁Carol	-4272
▁unit	-4273
oman	-4274
ampionship	-4275
▁Rem	-4276
▁max	-4277
aks	-4278
phone	-4279
van	-4280
▁Char	-4281
▁false	-4282
ih	-4283
▁animal	-4284
▁wealth	-4285
▁cards	-4286
▁victims	-4287
▁skills	-4288
▁Fe	-4289
going	-4290
▁Sol	-4291
▁located	-4292
▁existing	-4293
▁victory	-4294
▁AM	-4295
itt	-4296
ghan	-4297
▁charged	-4298
cious	-4299
▁African	-4300
▁notes	-4301
▁Institute	-4302
▁leadership	-4303
oyal	-4304
▁finding	-4305
BA	-4306
▁hack	-4307
▁Africa	-4308
▁allowing	-4309
▁supporters	-4310
▁Group	-4311
▁guess	-4312
ortunately	-4313
EST	-4314
bre	-4315
▁negoti	-4316
▁Mexico	-4317
▁argument	-4318
▁solve	-4319
ram	-4320
anted	-4321
azon	-4322
▁farm	-4323
▁believes	-4324
ym	-4325
▁experiment	-4326
gar	-4327
▁map	-4328
▁commercial	-4329
ibrary	-4330
▁entirely	-4331
▁connection	-4332
ctors	-4333
▁Louis	-4334
▁Thomas	-4335
▁occup	-4336
lege	-4337
▁Back	-4338
▁Nor	-4339
▁nor	-4340
▁views	-4341
▁FBI	-4342
▁refe	-4343
nel	-4344
NA	-4345
gl	-4346
▁catch	-4347
▁Virgin	-4348
▁direction	-4349
rad	-4350
works	-4351
▁attend	-4352
IL	-4353
▁Tre	-4354
▁Const	-4355
▁repeated	-4356
▁frame	-4357
▁witness	-4358
▁consequ	-4359
▁discovered	-4360
▁established	-4361
▁tweet	-4362
▁communities	-4363
▁tim	-4364
anging	-4365
▁sites	-4366
▁Ken	-4367
▁spoke	-4368
▁planning	-4369
itz	-4370
ancing	-4371
▁issued	-4372
▁murder	-4373
hol	-4374
▁caught	-4375
ga	-4376
rim	-4377
ula	-4378
▁missing	-4379
▁launched	-4380
cript	-4381
▁suggested	-4382
▁tools	-4383
cean	-4384
▁doubt	-4385
▁Jones	-4386
▁Israeli	-4387
▁justice	-4388
▁concerned	-4389
▁heat	-4390
annel	-4391
▁placed	-4392
].	-4393
▁telling	-4394
▁enforcement	-4395
!!	-4396
▁strength	-4397
▁output	-4398
GB	-4399
▁stick	-4400
spe	-4401
NN	-4402
▁Islamic	-4403
night	-4404
lor	-4405
iest	-4406
▁phil	-4407
▁Association	-4408
▁joined	-4409
▁Cur	-4410
FC	-4411
verse	-4412
▁swit	-4413
ication	-4414
▁committee	-4415
arant	-4416
▁award	-4417
▁Fore	-4418
▁businesses	-4419
apped	-4420
cient	-4421
▁Army	-4422
▁setting	-4423
▁Yet	-4424
▁disease	-4425
igan	-4426
▁mobile	-4427
tery	-4428
isation	-4429
▁definitely	-4430
how	-4431
▁san	-4432
▁wel	-4433
▁trend	-4434
▁Ryan	-4435
▁stock	-4436
▁Ukrain	-4437
▁sides	-4438
mas	-4439
real	-4440
▁strateg	-4441
▁annual	-4442
▁spirit	-4443
ario	-4444
▁afford	-4445
▁concern	-4446
▁sequ	-4447
▁rough	-4448
ception	-4449
which	-4450
bour	-4451
hi	-4452
▁owner	-4453
▁identified	-4454
▁homes	-4455
▁raise	-4456
atically	-4457
▁talks	-4458
CC	-4459
▁largely	-4460
▁bul	-4461
cks	-4462
▁Ir	-4463
▁newsp	-4464
▁truly	-4465
▁territ	-4466
cription	-4467
▁MP	-4468
▁Supreme	-4469
▁fle	-4470
▁drugs	-4471
▁cash	-4472
OL	-4473
▁sports	-4474
▁housing	-4475
▁decade	-4476
▁arrived	-4477
ancy	-4478
▁fuel	-4479
▁conservative	-4480
▁download	-4481
▁husband	-4482
cknow	-4483
formation	-4484
▁generation	-4485
▁worst	-4486
▁typically	-4487
▁scale	-4488
kin	-4489
▁nar	-4490
▁stopped	-4491
▁crew	-4492
pective	-4493
▁cold	-4494
▁useful	-4495
ests	-4496
azine	-4497
▁conflict	-4498
▁din	-4499
vention	-4500
uate	-4501
▁micro	-4502
▁fourth	-4503
▁Lat	-4504
ource	-4505
SP	-4506
▁Afghan	-4507
▁Martin	-4508
▁Rock	-4509
▁Angeles	-4510
▁banks	-4511
▁skin	-4512
▁Holl	-4513
▁Research	-4514
▁Sum	-4515
aven	-4516
▁impossible	-4517
idel	-4518
▁ST	-4519
iter	-4520
▁introduced	-4521
ups	-4522
▁focused	-4523
▁Government	-4524
anish	-4525
▁circum	-4526
ications	-4527
pping	-4528
▁slightly	-4529
▁pet	-4530
icon	-4531
oted	-4532
▁numer	-4533
▁decisions	-4534
but	-4535
▁Joe	-4536
▁Microsoft	-4537
!”	-4538
asy	-4539
semb	-4540
▁PC	-4541
gypt	-4542
▁Bitcoin	-4543
▁otherwise	-4544
▁deliver	-4545
▁plants	-4546
!"	-4547
▁interests	-4548
ighter	-4549
▁que	-4550
iot	-4551
andom	-4552
▁Jose	-4553
aren	-4554
osure	-4555
rie	-4556
▁identity	-4557
ller	-4558
adium	-4559
▁Pet	-4560
▁measures	-4561
inter	-4562
▁Time	-4563
No	-4564
▁dat	-4565
kins	-4566
illa	-4567
▁sust	-4568
▁managed	-4569
▁Pak	-4570
itect	-4571
ava	-4572
▁decide	-4573
▁Palestin	-4574
can	-4575
wing	-4576
▁factors	-4577
▁partner	-4578
what	-4579
▁trip	-4580
▁Peter	-4581
ocracy	-4582
▁initi	-4583
▁environmental	-4584
ructure	-4585
▁Str	-4586
umn	-4587
▁Mont	-4588
▁Form	-4589
▁appre	-4590
▁humans	-4591
▁testing	-4592
▁pair	-4593
▁keeping	-4594
▁candidates	-4595
▁walking	-4596
▁relatively	-4597
▁Prime	-4598
▁plot	-4599
▁rich	-4600
▁assess	-4601
▁acknow	-4602
▁planet	-4603
▁feels	-4604
▁Lu	-4605
ronic	-4606
▁fant	-4607
▁specifically	-4608
▁input	-4609
▁funds	-4610
▁spokesman	-4611
hens	-4612
▁aggress	-4613
ading	-4614
onym	-4615
▁twice	-4616
▁removed	-4617
odies	-4618
dden	-4619
▁Jon	-4620
▁operation	-4621
▁CEO	-4622
▁multi	-4623
▁protection	-4624
▁seconds	-4625
eal	-4626
▁variety	-4627
▁update	-4628
▁Team	-4629
ucky	-4630
ulate	-4631
▁neighborhood	-4632
▁Bet	-4633
▁Amazon	-4634
▁marijuana	-4635
suit	-4636
uct	-4637
▁taxes	-4638
▁therefore	-4639
ka	-4640
▁corner	-4641
▁prefer	-4642
▁Mars	-4643
▁beer	-4644
rig	-4645
▁Which	-4646
onto	-4647
▁Egypt	-4648
▁committed	-4649
▁Bern	-4650
▁failure	-4651
▁sentences	-4652
▁commission	-4653
▁famous	-4654
eless	-4655
▁exchange	-4656
▁gay	-4657
▁flight	-4658
▁Atlant	-4659
▁starts	-4660
▁College	-4661
Don	-4662
▁offensive	-4663
▁organizations	-4664
enses	-4665
▁Camp	-4666
▁phr	-4667
▁collection	-4668
▁scientific	-4669
▁planned	-4670
ulated	-4671
▁killing	-4672
▁models	-4673
▁helping	-4674
BS	-4675
▁AN	-4676
▁strike	-4677
ores	-4678
▁Before	-4679
▁Fed	-4680
▁Each	-4681
▁Public	-4682
▁injury	-4683
▁Premise	-4684
▁beautiful	-4685
▁Bob	-4686
▁Central	-4687
itutional	-4688
▁sudden	-4689
▁Rub	-4690
▁figures	-4691
▁tast	-4692
▁Er	-4693
▁depend	-4694
▁Secretary	-4695
▁gain	-4696
▁supply	-4697
▁Lee	-4698
▁princ	-4699
▁Open	-4700
▁veter	-4701
▁mental	-4702
▁baby	-4703
▁hasn	-4704
▁ultimately	-4705
hy	-4706
rep	-4707
▁tough	-4708
▁remind	-4709
met	-4710
anda	-4711
▁turns	-4712
▁River	-4713
▁finished	-4714
outs	-4715
phas	-4716
▁THE	-4717
▁survey	-4718
▁wood	-4719
▁academ	-4720
TC	-4721
▁chemical	-4722
▁refuge	-4723
▁professor	-4724
▁lands	-4725
▁lived	-4726
▁standards	-4727
ansion	-4728
ii	-4729
ruit	-4730
▁familiar	-4731
acks	-4732
▁spect	-4733
▁Jes	-4734
hedul	-4735
▁wish	-4736
▁writer	-4737
▁answers	-4738
aded	-4739
▁window	-4740
▁Jewish	-4741
▁weak	-4742
▁happening	-4743
▁Service	-4744
stein	-4745
▁Den	-4746
▁Mass	-4747
▁fish	-4748
ynam	-4749
▁Plan	-4750
▁pieces	-4751
▁speaking	-4752
stream	-4753
▁covered	-4754
▁none	-4755
▁gar	-4756
▁obvious	-4757
ili	-4758
ipping	-4759
▁graph	-4760
▁appoint	-4761
▁regarding	-4762
▁discussion	-4763
ici	-4764
▁Syrian	-4765
fit	-4766
oston	-4767
▁guard	-4768
eah	-4769
▁bought	-4770
▁slowly	-4771
▁sea	-4772
▁presented	-4773
iser	-4774
▁GOP	-4775
▁Put	-4776
pire	-4777
▁Gar	-4778
When	-4779
rency	-4780
▁philos	-4781
anche	-4782
▁restaurant	-4783
▁settle	-4784
▁accounts	-4785
PA	-4786
▁Fire	-4787
▁Ev	-4788
▁innov	-4789
▁religion	-4790
▁flow	-4791
▁abuse	-4792
▁healthy	-4793
▁equip	-4794
▁immigration	-4795
rick	-4796
▁Mel	-4797
▁univers	-4798
▁balance	-4799
▁;	-4800
▁relevant	-4801
▁fellow	-4802
▁click	-4803
▁units	-4804
▁seeking	-4805
▁mut	-4806
▁Sing	-4807
▁amazing	-4808
▁migr	-4809
ola	-4810
place	-4811
▁mere	-4812
▁carried	-4813
▁possibly	-4814
enced	-4815
▁Mean	-4816
▁capacity	-4817
▁describe	-4818
▁defensive	-4819
▁alternative	-4820
▁files	-4821
▁developing	-4822
CH	-4823
makers	-4824
▁bigger	-4825
▁PM	-4826
▁Chief	-4827
US	-4828
▁army	-4829
▁dropped	-4830
▁intended	-4831
▁breat	-4832
▁Gal	-4833
▁schedul	-4834
▁soldiers	-4835
▁sport	-4836
▁pit	-4837
net	-4838
▁equal	-4839
EM	-4840
with	-4841
▁cuts	-4842
ffee	-4843
▁Social	-4844
▁District	-4845
▁domestic	-4846
AA	-4847
icial	-4848
imal	-4849
▁Phot	-4850
▁pil	-4851
▁Android	-4852
▁sounds	-4853
▁revolution	-4854
apers	-4855
▁Federal	-4856
▁Top	-4857
▁authority	-4858
————	-4859
▁Book	-4860
agues	-4861
uters	-4862
▁union	-4863
season	-4864
▁Tit	-4865
related	-4866
▁Middle	-4867
▁worry	-4868
▁Francisco	-4869
▁degree	-4870
▁changing	-4871
▁expensive	-4872
▁solar	-4873
gn	-4874
▁Media	-4875
▁tests	-4876
ocol	-4877
▁increasingly	-4878
▁losing	-4879
▁script	-4880
ias	-4881
▁vast	-4882
▁Toronto	-4883
▁incor	-4884
▁carbon	-4885
hab	-4886
▁paying	-4887
▁ath	-4888
▁Matt	-4889
▁apply	-4890
▁forms	-4891
▁Paris	-4892
aine	-4893
▁filed	-4894
osen	-4895
▁teen	-4896
▁expert	-4897
▁clim	-4898
▁definition	-4899
▁shall	-4900
▁thanks	-4901
▁Conserv	-4902
▁USA	-4903
▁Web	-4904
."?	-4905
▁Virginia	-4906
mosp	-4907
▁belong	-4908
▁honest	-4909
▁satisf	-4910
▁arms	-4911
▁involve	-4912
▁occurred	-4913
▁closer	-4914
▁agencies	-4915
▁remaining	-4916
awn	-4917
atures	-4918
▁vir	-4919
▁Free	-4920
▁prime	-4921
icide	-4922
▁identify	-4923
▁Sher	-4924
▁Watch	-4925
▁fif	-4926
▁apart	-4927
▁possibility	-4928
▁broken	-4929
ashed	-4930
▁stars	-4931
▁Boston	-4932
och	-4933
arks	-4934
▁Mur	-4935
▁customer	-4936
▁symb	-4937
▁Australian	-4938
▁glass	-4939
▁Prov	-4940
▁artist	-4941
▁Ari	-4942
lets	-4943
▁Cath	-4944
RA	-4945
under	-4946
▁surve	-4947
▁potentially	-4948
vis	-4949
▁Carolina	-4950
lig	-4951
▁corporate	-4952
ils	-4953
▁Where	-4954
▁tree	-4955
▁herself	-4956
▁streets	-4957
look	-4958
▁Spr	-4959
ortion	-4960
DA	-4961
▁Images	-4962
▁consult	-4963
▁operating	-4964
▁recorded	-4965
▁hate	-4966
▁rapid	-4967
▁accident	-4968
▁Hol	-4969
▁odd	-4970
▁BBC	-4971
▁markets	-4972
▁distance	-4973
PS	-4974
standing	-4975
▁vision	-4976
▁Whe	-4977
▁unless	-4978
▁Steve	-4979
idden	-4980
Americ	-4981
▁nut	-4982
rastructure	-4983
rible	-4984
▁votes	-4985
▁fundament	-4986
cons	-4987
▁scr	-4988
▁appropriate	-4989
Is	-4990
eds	-4991
▁stress	-4992
▁challenges	-4993
porary	-4994
▁absolutely	-4995
roud	-4996
▁imagine	-4997
▁attorney	-4998
▁cas	-4999
▁cart	-5000
▁fired	-5001
▁equipment	-5002
▁hun	-5003
▁domin	-5004
▁instit	-5005
▁sch	-5006
▁Though	-5007
▁offering	-5008
useum	-5009
▁Expl	-5010
▁statements	-5011
ellow	-5012
▁appreci	-5013
▁applications	-5014
▁contains	-5015
****	-5016
lymp	-5017
oving	-5018
▁apparently	-5019
▁appearance	-5020
▁lob	-5021
ini	-5022
▁films	-5023
▁Second	-5024
▁Ve	-5025
inent	-5026
▁roll	-5027
▁leads	-5028
▁detail	-5029
uration	-5030
▁rid	-5031
▁experts	-5032
▁cultural	-5033
▁arr	-5034
▁tourn	-5035
▁university	-5036
▁adjust	-5037
arp	-5038
▁island	-5039
sen	-5040
ologies	-5041
▁Mem	-5042
▁tack	-5043
▁estimated	-5044
▁originally	-5045
▁vehicles	-5046
▁guarant	-5047
▁Williams	-5048
▁internal	-5049
▁Next	-5050
▁https	-5051
▁surprise	-5052
▁shop	-5053
▁selling	-5054
olved	-5055
▁infect	-5056
▁broke	-5057
▁developers	-5058
▁shape	-5059
▁Foundation	-5060
▁council	-5061
▁seasons	-5062
▁elected	-5063
▁thoughts	-5064
▁considering	-5065
▁plus	-5066
ader	-5067
▁secure	-5068
ours	-5069
hand	-5070
▁responsibility	-5071
▁Only	-5072
▁entailed	-5073
cel	-5074
centr	-5075
reland	-5076
▁widely	-5077
▁remove	-5078
olit	-5079
▁Guard	-5080
▁prosecut	-5081
▁gender	-5082
▁bound	-5083
▁coast	-5084
▁instruct	-5085
▁pages	-5086
life	-5087
▁bringing	-5088
asket	-5089
▁vul	-5090
▁remained	-5091
▁sale	-5092
▁Dec	-5093
▁fol	-5094
▁conc	-5095
▁era	-5096
▁revenue	-5097
▁ruling	-5098
▁troops	-5099
▁affected	-5100
▁faster	-5101
Re	-5102
▁heav	-5103
ressive	-5104
▁prepared	-5105
▁Stan	-5106
▁ton	-5107
▁element	-5108
▁hurt	-5109
▁passage	-5110
lay	-5111
▁Mos	-5112
▁exclus	-5113
▁experiences	-5114
▁thr	-5115
▁disappoint	-5116
▁Rad	-5117
▁experienced	-5118
▁reduced	-5119
▁Hist	-5120
▁Haw	-5121
▁brow	-5122
▁valid	-5123
run	-5124
▁approx	-5125
alls	-5126
▁sad	-5127
▁error	-5128
▁Journal	-5129
▁Dan	-5130
▁expressed	-5131
▁finish	-5132
ogue	-5133
zer	-5134
▁Supp	-5135
▁dram	-5136
▁minute	-5137
noon	-5138
onom	-5139
▁Ireland	-5140
▁dial	-5141
▁movies	-5142
▁governments	-5143
My	-5144
col	-5145
▁Olymp	-5146
▁deploy	-5147
▁Penn	-5148
▁conclusion	-5149
▁earn	-5150
▁calcul	-5151
▁indeed	-5152
▁stret	-5153
▁percentage	-5154
▁greatest	-5155
road	-5156
▁Show	-5157
▁temperature	-5158
▁leaves	-5159
uster	-5160
state	-5161
▁agent	-5162
▁gather	-5163
▁clin	-5164
terday	-5165
respond	-5166
orage	-5167
HL	-5168
ss	-5169
▁situ	-5170
▁essential	-5171
war	-5172
▁conducted	-5173
▁Charl	-5174
▁proposal	-5175
▁seat	-5176
▁evening	-5177
▁Bat	-5178
apter	-5179
pired	-5180
▁Its	-5181
rier	-5182
pay	-5183
▁Work	-5184
▁minimum	-5185
▁Andrew	-5186
▁numerous	-5187
ita	-5188
amm	-5189
▁Bus	-5190
ompl	-5191
▁Ron	-5192
▁significantly	-5193
ashion	-5194
▁atmosp	-5195
▁Meanwhile	-5196
gment	-5197
ruption	-5198
▁elections	-5199
pm	-5200
▁Sk	-5201
▁sector	-5202
▁ec	-5203
▁entertain	-5204
lo	-5205
tion	-5206
person	-5207
▁quant	-5208
cles	-5209
▁emphas	-5210
▁Ok	-5211
▁aircraft	-5212
uit	-5213
inte	-5214
ocking	-5215
▁yards	-5216
▁refused	-5217
▁Ol	-5218
▁trail	-5219
▁Science	-5220
▁methods	-5221
▁Sign	-5222
▁About	-5223
▁depart	-5224
▁master	-5225
▁convention	-5226
▁Ital	-5227
▁warm	-5228
IV	-5229
▁ast	-5230
ighters	-5231
▁positions	-5232
▁tight	-5233
▁mort	-5234
▁powers	-5235
reens	-5236
▁Vict	-5237
▁combined	-5238
▁Grand	-5239
▁Sant	-5240
▁react	-5241
▁Pac	-5242
rog	-5243
▁id	-5244
▁Cru	-5245
▁tele	-5246
hered	-5247
ordin	-5248
▁combat	-5249
▁predict	-5250
▁architect	-5251
▁contrast	-5252
▁uns	-5253
▁handle	-5254
▁completed	-5255
▁excited	-5256
▁Still	-5257
▁necessarily	-5258
▁sem	-5259
▁weapon	-5260
For	-5261
▁ends	-5262
oves	-5263
▁prove	-5264
▁weather	-5265
▁IN	-5266
▁Fer	-5267
▁married	-5268
▁fra	-5269
▁Island	-5270
class	-5271
▁infrastructure	-5272
▁differences	-5273
▁Roman	-5274
▁purchase	-5275
▁privacy	-5276
▁determined	-5277
▁boost	-5278
▁supporting	-5279
▁accompl	-5280
▁proceed	-5281
▁grew	-5282
▁server	-5283
▁hol	-5284
▁concentr	-5285
oken	-5286
▁Hen	-5287
▁visual	-5288
DP	-5289
▁Av	-5290
▁Braz	-5291
▁factor	-5292
▁pulled	-5293
▁regime	-5294
▁facing	-5295
▁construct	-5296
▁Jul	-5297
▁voted	-5298
▁pool	-5299
▁emergency	-5300
▁Dani	-5301
▁snow	-5302
▁label	-5303
▁Labour	-5304
▁songs	-5305
▁stands	-5306
mail	-5307
▁collabor	-5308
▁afternoon	-5309
care	-5310
▁frustr	-5311
▁weren	-5312
astern	-5313
▁Human	-5314
rawn	-5315
II	-5316
▁RE	-5317
▁random	-5318
acter	-5319
▁appeal	-5320
▁rain	-5321
▁suit	-5322
▁hopes	-5323
▁signs	-5324
▁Look	-5325
that	-5326
▁Force	-5327
asp	-5328
auc	-5329
▁tact	-5330
▁opportunities	-5331
ulture	-5332
▁Wood	-5333
▁motiv	-5334
essions	-5335
▁Christmas	-5336
▁centre	-5337
▁Daily	-5338
writ	-5339
▁plenty	-5340
apping	-5341
▁thank	-5342
▁sand	-5343
▁causes	-5344
▁talked	-5345
▁doctor	-5346
▁pictures	-5347
born	-5348
▁diss	-5349
▁lots	-5350
▁retail	-5351
▁Kim	-5352
▁Gen	-5353
▁Tra	-5354
▁popul	-5355
▁buildings	-5356
▁trouble	-5357
Tr	-5358
▁politicians	-5359
▁Somet	-5360
()	-5361
▁Maybe	-5362
▁treated	-5363
▁Mount	-5364
▁pointed	-5365
anged	-5366
▁Four	-5367
▁bodies	-5368
uous	-5369
▁shift	-5370
▁Swed	-5371
▁trig	-5372
ownt	-5373
itionally	-5374
ena	-5375
▁listen	-5376
ensions	-5377
OW	-5378
▁sets	-5379
west	-5380
itar	-5381
▁aid	-5382
▁reference	-5383
li	-5384
▁burn	-5385
▁bird	-5386
▁Ms	-5387
▁proced	-5388
▁square	-5389
▁creation	-5390
▁flat	-5391
▁Dou	-5392
▁Wal	-5393
▁prompt	-5394
▁effectively	-5395
sts	-5396
▁connected	-5397
▁AT	-5398
▁bike	-5399
▁obviously	-5400
▁loved	-5401
lyn	-5402
osite	-5403
▁Techn	-5404
▁argued	-5405
elly	-5406
▁Director	-5407
▁gam	-5408
▁metal	-5409
ench	-5410
▁sac	-5411
oking	-5412
isters	-5413
▁Jackson	-5414
ishes	-5415
▁videos	-5416
▁zone	-5417
gent	-5418
▁Columb	-5419
▁filled	-5420
▁suppl	-5421
▁attempts	-5422
▁//	-5423
▁youth	-5424
edy	-5425
ributed	-5426
plom	-5427
ourney	-5428
▁Develop	-5429
lines	-5430
pet	-5431
▁renew	-5432
▁matters	-5433
ht	-5434
cohol	-5435
▁Spanish	-5436
▁decre	-5437
▁NAS	-5438
▁gra	-5439
obe	-5440
▁Cho	-5441
##	-5442
▁advance	-5443
▁turning	-5444
▁Long	-5445
endment	-5446
▁Road	-5447
▁vulner	-5448
▁confirm	-5449
▁Scot	-5450
▁Power	-5451
▁plane	-5452
ala	-5453
ano	-5454
▁pu	-5455
mond	-5456
idelines	-5457
xy	-5458
▁ordered	-5459
,’	-5460
▁discl	-5461
▁unable	-5462
▁practices	-5463
wer	-5464
▁Lake	-5465
▁dismiss	-5466
ache	-5467
▁patient	-5468
▁transform	-5469
,'	-5470
▁Ma	-5471
host	-5472
▁Brazil	-5473
▁Turkey	-5474
IP	-5475
▁ing	-5476
▁boys	-5477
top	-5478
▁voting	-5479
▁begins	-5480
▁reporting	-5481
▁Ill	-5482
▁denied	-5483
▁severe	-5484
aped	-5485
▁eating	-5486
▁circumst	-5487
▁reaction	-5488
▁confident	-5489
▁Hypothesis	-5490
▁opposed	-5491
▁newspaper	-5492
▁Thanks	-5493
▁Fil	-5494
▁Saud	-5495
▁egg	-5496
▁Note	-5497
▁passing	-5498
,[	-5499
▁Project	-5500
unction	-5501
▁injured	-5502
erved	-5503
ivered	-5504
▁debut	-5505
▁nearby	-5506
▁package	-5507
▁Tal	-5508
▁forg	-5509
▁Michigan	-5510
▁category	-5511
▁advice	-5512
▁explos	-5513
pass	-5514
arden	-5515
▁quiet	-5516
ampion	-5517
oral	-5518
TV	-5519
▁rent	-5520
▁spring	-5521
▁exercise	-5522
▁coffee	-5523
▁surprising	-5524
▁Ann	-5525
▁craft	-5526
▁approved	-5527
▁split	-5528
▁ongoing	-5529
▁performed	-5530
opping	-5531
▁Space	-5532
▁switch	-5533
▁responded	-5534
▁tun	-5535
▁consumers	-5536
▁struggle	-5537
▁flood	-5538
mm	-5539
eration	-5540
▁upgr	-5541
ador	-5542
▁broadcast	-5543
▁explains	-5544
isms	-5545
aza	-5546
▁increases	-5547
▁elimin	-5548
▁forget	-5549
▁suffered	-5550
▁Carl	-5551
▁fly	-5552
▁Cop	-5553
▁Best	-5554
▁datab	-5555
abilities	-5556
▁expansion	-5557
▁reporters	-5558
▁eval	-5559
ionally	-5560
▁perspective	-5561
▁CNN	-5562
▁institutions	-5563
abin	-5564
▁AC	-5565
ternal	-5566
▁Again	-5567
▁Rev	-5568
▁Rod	-5569
],	-5570
▁Enter	-5571
ilty	-5572
▁kit	-5573
▁armed	-5574
▁facts	-5575
▁initially	-5576
So	-5577
▁prospect	-5578
▁optim	-5579
▁picked	-5580
▁subsequ	-5581
▁Color	-5582
▁Squ	-5583
▁correspond	-5584
▁Sov	-5585
cribe	-5586
▁Pakistan	-5587
▁marg	-5588
▁mal	-5589
▁Ohio	-5590
▁cloud	-5591
▁objects	-5592
▁materials	-5593
▁wear	-5594
water	-5595
▁Walk	-5596
▁iPh	-5597
▁dogs	-5598
▁importance	-5599
▁confidence	-5600
▁proud	-5601
nell	-5602
▁technical	-5603
estival	-5604
▁waste	-5605
▁capable	-5606
▁panel	-5607
istered	-5608
▁transition	-5609
chen	-5610
ooth	-5611
▁editor	-5612
unte	-5613
▁hat	-5614
▁returns	-5615
▁Year	-5616
▁updates	-5617
▁writes	-5618
UT	-5619
▁declared	-5620
icing	-5621
illance	-5622
▁excell	-5623
▁abandon	-5624
▁Div	-5625
rist	-5626
orse	-5627
▁prin	-5628
▁Italy	-5629
ansas	-5630
▁grab	-5631
▁Thank	-5632
▁lawyer	-5633
Sh	-5634
▁Far	-5635
▁mode	-5636
▁magazine	-5637
▁Therefore	-5638
▁describes	-5639
▁Nov	-5640
arters	-5641
▁liberal	-5642
▁van	-5643
friend	-5644
▁philosoph	-5645
▁messages	-5646
▁crimes	-5647
ey	-5648
▁god	-5649
▁examples	-5650
▁Life	-5651
▁crack	-5652
▁Further	-5653
rd	-5654
rend	-5655
▁liqu	-5656
▁vari	-5657
▁basically	-5658
▁Three	-5659
gia	-5660
▁System	-5661
PR	-5662
rite	-5663
▁apps	-5664
ucks	-5665
▁pra	-5666
UEST	-5667
word	-5668
uthors	-5669
▁faces	-5670
▁communication	-5671
▁ride	-5672
▁delay	-5673
agers	-5674
cho	-5675
enger	-5676
▁applied	-5677
▁seriously	-5678
▁bag	-5679
▁Du	-5680
▁\	-5681
▁Boy	-5682
▁Test	-5683
▁cooper	-5684
▁sister	-5685
▁ourselves	-5686
adow	-5687
An	-5688
PD	-5689
▁Sar	-5690
▁Down	-5691
ounded	-5692
IG	-5693
umber	-5694
▁bond	-5695
▁faced	-5696
▁represents	-5697
orders	-5698
▁formed	-5699
dule	-5700
▁Asia	-5701
free	-5702
long	-5703
onna	-5704
orry	-5705
▁guns	-5706
▁Ukraine	-5707
▁east	-5708
▁division	-5709
ta	-5710
▁buying	-5711
ittle	-5712
mary	-5713
▁boss	-5714
▁chart	-5715
▁substant	-5716
▁admitted	-5717
▁Afghanistan	-5718
razy	-5719
▁caption	-5720
▁younger	-5721
▁sentiment	-5722
▁Sea	-5723
▁motor	-5724
▁DC	-5725
▁Blue	-5726
enture	-5727
▁myster	-5728
▁default	-5729
employ	-5730
▁publicly	-5731
▁delivered	-5732
▁industrial	-5733
ilit	-5734
▁advert	-5735
▁conscious	-5736
▁edge	-5737
ENT	-5738
▁secretary	-5739
▁Wars	-5740
nergy	-5741
▁Club	-5742
▁choices	-5743
▁bot	-5744
▁agents	-5745
▁sam	-5746
▁desire	-5747
UESTION	-5748
▁Week	-5749
▁Kh	-5750
▁Ell	-5751
▁pitch	-5752
▁Seattle	-5753
▁criticism	-5754
▁flag	-5755
▁neither	-5756
▁rail	-5757
▁Right	-5758
▁causing	-5759
▁Wild	-5760
▁thinks	-5761
▁governor	-5762
▁resc	-5763
▁flu	-5764
law	-5765
ican	-5766
rid	-5767
▁scored	-5768
▁resolution	-5769
▁Lin	-5770
▁Charles	-5771
▁emotional	-5772
essor	-5773
esters	-5774
▁diplom	-5775
▁fort	-5776
▁holds	-5777
▁string	-5778
▁creative	-5779
▁violent	-5780
▁dynam	-5781
aints	-5782
▁Korean	-5783
▁Aut	-5784
▁Card	-5785
▁referred	-5786
▁explo	-5787
▁Elect	-5788
▁session	-5789
▁nav	-5790
▁Italian	-5791
▁shouldn	-5792
▁replaced	-5793
▁Di	-5794
▁withd	-5795
▁empt	-5796
▁phen	-5797
eff	-5798
▁consequences	-5799
▁moves	-5800
▁joint	-5801
abb	-5802
▁laugh	-5803
▁functions	-5804
▁instru	-5805
▁lie	-5806
▁village	-5807
▁meat	-5808
▁enh	-5809
▁perman	-5810
▁aspects	-5811
▁stores	-5812
xual	-5813
▁Hy	-5814
▁adds	-5815
▁linked	-5816
▁talent	-5817
▁giant	-5818
▁expression	-5819
asure	-5820
▁reportedly	-5821
edd	-5822
▁scheduled	-5823
▁argue	-5824
▁client	-5825
▁emails	-5826
rant	-5827
▁Aff	-5828
mates	-5829
▁mand	-5830
pret	-5831
▁sym	-5832
▁Story	-5833
▁mouth	-5834
hips	-5835
▁west	-5836
▁storm	-5837
▁fraud	-5838
oom	-5839
▁suc	-5840
▁fill	-5841
▁magn	-5842
date	-5843
▁Men	-5844
▁trib	-5845
▁winter	-5846
▁quarterback	-5847
▁readers	-5848
LS	-5849
angers	-5850
▁Fam	-5851
▁adapt	-5852
iques	-5853
▁carrying	-5854
▁trees	-5855
ato	-5856
otal	-5857
▁guilty	-5858
burg	-5859
▁sought	-5860
DS	-5861
irty	-5862
▁PR	-5863
▁realize	-5864
▁mir	-5865
called	-5866
▁bright	-5867
▁Win	-5868
▁accurate	-5869
LE	-5870
whel	-5871
▁rot	-5872
MA	-5873
▁dress	-5874
▁declined	-5875
▁enemy	-5876
▁af	-5877
etroit	-5878
▁row	-5879
▁surprised	-5880
isting	-5881
stood	-5882
▁Vol	-5883
omin	-5884
▁Young	-5885
▁missed	-5886
atell	-5887
ette	-5888
▁cycle	-5889
▁pray	-5890
oma	-5891
itors	-5892
▁Ident	-5893
▁discussed	-5894
▁chain	-5895
▁listed	-5896
▁Stephen	-5897
▁entered	-5898
▁injuries	-5899
▁resident	-5900
▁Polit	-5901
▁consumer	-5902
LA	-5903
usal	-5904
▁jail	-5905
ferences	-5906
▁Barack	-5907
▁serving	-5908
anges	-5909
▁Bell	-5910
▁urban	-5911
▁nations	-5912
▁acting	-5913
Cl	-5914
abled	-5915
active	-5916
▁basket	-5917
enda	-5918
illy	-5919
▁Vide	-5920
▁sees	-5921
▁accepted	-5922
▁copyright	-5923
▁diet	-5924
urning	-5925
▁Games	-5926
▁instruction	-5927
▁library	-5928
▁classes	-5929
▁rein	-5930
▁historical	-5931
▁combination	-5932
▁adults	-5933
▁adm	-5934
▁ske	-5935
▁legit	-5936
▁storage	-5937
▁Lord	-5938
▁Exp	-5939
▁sick	-5940
▁route	-5941
▁suffering	-5942
▁essentially	-5943
▁featured	-5944
▁isol	-5945
▁yesterday	-5946
▁radical	-5947
otic	-5948
▁highlight	-5949
▁bull	-5950
▁sav	-5951
ograp	-5952
▁findings	-5953
▁improved	-5954
erate	-5955
▁studio	-5956
▁democracy	-5957
▁Mot	-5958
▁cann	-5959
▁du	-5960
▁topic	-5961
▁Home	-5962
▁franch	-5963
▁sharing	-5964
▁Muslims	-5965
hetic	-5966
▁fewer	-5967
▁remark	-5968
▁Mic	-5969
rich	-5970
▁Author	-5971
▁ancient	-5972
▁totally	-5973
nam	-5974
▁symbol	-5975
▁Gra	-5976
▁distribution	-5977
issions	-5978
▁articles	-5979
hus	-5980
":	-5981
ockey	-5982
rum	-5983
▁grown	-5984
▁warned	-5985
mes	-5986
▁alt	-5987
▁shots	-5988
▁stood	-5989
▁efficient	-5990
athan	-5991
▁activists	-5992
▁terrorist	-5993
▁surrounding	-5994
▁announcement	-5995
▁unlikely	-5996
▁consistent	-5997
▁Wik	-5998
▁existence	-5999
rip	-6000
▁Take	-6001
▁hotel	-6002
▁native	-6003
▁deaths	-6004
▁tournament	-6005
▁journey	-6006
▁warning	-6007
▁approximately	-6008
greg	-6009
▁succeed	-6010
▁Die	-6011
Con	-6012
▁roughly	-6013
▁advanced	-6014
▁teachers	-6015
▁bare	-6016
▁pure	-6017
bel	-6018
▁intention	-6019
▁investors	-6020
uls	-6021
boy	-6022
▁Ret	-6023
tering	-6024
▁opposite	-6025
▁heads	-6026
▁hardware	-6027
▁prohib	-6028
▁evolution	-6029
▁primarily	-6030
PU	-6031
▁blow	-6032
▁Holly	-6033
ua	-6034
utch	-6035
On	-6036
▁simpl	-6037
▁Finally	-6038
▁GM	-6039
▁Soviet	-6040
▁Adam	-6041
▁lawsuit	-6042
▁brings	-6043
eria	-6044
▁Does	-6045
▁Econom	-6046
dis	-6047
▁heavily	-6048
iat	-6049
▁Eric	-6050
▁hell	-6051
▁alcohol	-6052
amin	-6053
ixt	-6054
▁iPhone	-6055
▁manufacture	-6056
▁?	-6057
▁Daniel	-6058
▁Tay	-6059
▁commitment	-6060
icious	-6061
▁Davis	-6062
▁Society	-6063
▁manage	-6064
ensus	-6065
▁Detroit	-6066
edia	-6067
▁tech	-6068
▁tiny	-6069
▁Share	-6070
▁colleagues	-6071
▁Fig	-6072
▁king	-6073
▁drivers	-6074
▁Saudi	-6075
▁Ariz	-6076
▁artists	-6077
level	-6078
▁Kevin	-6079
▁extract	-6080
▁Old	-6081
ocket	-6082
uild	-6083
▁currency	-6084
▁hall	-6085
▁Water	-6086
Le	-6087
▁walked	-6088
▁northern	-6089
▁Love	-6090
▁hoping	-6091
▁Pan	-6092
▁trick	-6093
▁cheap	-6094
▁atmosphere	-6095
▁anywhere	-6096
Tube	-6097
▁contest	-6098
▁circumstances	-6099
oked	-6100
▁threats	-6101
▁networks	-6102
She	-6103
▁sample	-6104
▁Board	-6105
▁campus	-6106
▁allegations	-6107
▁Way	-6108
▁gang	-6109
▁fashion	-6110
▁syn	-6111
▁marketing	-6112
▁Perhaps	-6113
▁Max	-6114
▁finds	-6115
▁rising	-6116
▁Rights	-6117
▁motion	-6118
▁components	-6119
▁owned	-6120
olve	-6121
▁fairly	-6122
▁acknowled	-6123
▁Van	-6124
▁intent	-6125
▁Lib	-6126
▁Review	-6127
▁lies	-6128
▁shif	-6129
ologist	-6130
▁universe	-6131
▁Brook	-6132
oration	-6133
▁Wilson	-6134
▁immediate	-6135
▁doctors	-6136
▁strange	-6137
▁household	-6138
esome	-6139
acle	-6140
▁paint	-6141
▁breaking	-6142
duc	-6143
▁Ford	-6144
▁properties	-6145
▁Cast	-6146
▁mine	-6147
▁Energy	-6148
▁Real	-6149
▁manner	-6150
▁dry	-6151
erry	-6152
▁spons	-6153
OD	-6154
▁format	-6155
▁surveillance	-6156
IM	-6157
▁exhib	-6158
▁defined	-6159
pan	-6160
▁crash	-6161
▁everybody	-6162
uable	-6163
▁Check	-6164
▁Sports	-6165
▁rating	-6166
SS	-6167
New	-6168
▁narr	-6169
▁classic	-6170
▁Catholic	-6171
▁skill	-6172
▁moments	-6173
▁button	-6174
▁discover	-6175
▁southern	-6176
cipl	-6177
▁bon	-6178
▁pal	-6179
▁Jord	-6180
▁properly	-6181
▁dedicated	-6182
▁rum	-6183
▁entry	-6184
certain	-6185
▁closely	-6186
▁behavi	-6187
▁Land	-6188
sembly	-6189
▁extent	-6190
▁athlet	-6191
▁acts	-6192
agraph	-6193
▁orders	-6194
asks	-6195
▁locations	-6196
▁Invest	-6197
▁ID	-6198
▁Cat	-6199
▁pushed	-6200
▁unus	-6201
▁Brian	-6202
esh	-6203
▁hur	-6204
▁wave	-6205
▁earned	-6206
▁explore	-6207
▁frequently	-6208
▁excellent	-6209
▁involving	-6210
▁embr	-6211
▁selection	-6212
▁shel	-6213
fortunately	-6214
▁volunte	-6215
▁parliament	-6216
▁Cam	-6217
erves	-6218
stone	-6219
▁desk	-6220
▁column	-6221
kel	-6222
cluding	-6223
▁Camer	-6224
avor	-6225
▁somewhat	-6226
▁Kingdom	-6227
▁watched	-6228
inem	-6229
▁moral	-6230
▁territory	-6231
▁regulations	-6232
▁authors	-6233
▁versions	-6234
▁reasonable	-6235
▁height	-6236
▁pled	-6237
▁anx	-6238
▁comfortable	-6239
▁AD	-6240
ether	-6241
style	-6242
▁favour	-6243
▁Stand	-6244
▁receiving	-6245
nic	-6246
▁cert	-6247
▁playoff	-6248
▁regional	-6249
▁Brad	-6250
▁regions	-6251
sters	-6252
▁reput	-6253
▁passion	-6254
▁Jesus	-6255
▁matches	-6256
▁Sky	-6257
▁targets	-6258
▁downt	-6259
▁Steven	-6260
▁colon	-6261
▁alongside	-6262
="	-6263
▁ISIS	-6264
▁cup	-6265
▁vice	-6266
▁usual	-6267
▁Business	-6268
▁guide	-6269
▁YouTube	-6270
▁Hou	-6271
IF	-6272
uan	-6273
▁PS	-6274
▁facility	-6275
▁DNA	-6276
▁promise	-6277
▁participants	-6278
iveness	-6279
▁sustain	-6280
▁allegedly	-6281
▁Bas	-6282
lights	-6283
ora	-6284
▁requirements	-6285
lete	-6286
▁theme	-6287
▁NBA	-6288
▁Ram	-6289
▁protests	-6290
▁Turk	-6291
▁wake	-6292
▁Miller	-6293
iform	-6294
rison	-6295
ping	-6296
▁pushing	-6297
▁Wat	-6298
▁Gi	-6299
▁batt	-6300
apse	-6301
▁wins	-6302
▁rally	-6303
▁attempted	-6304
▁CIA	-6305
▁bug	-6306
izz	-6307
▁Romney	-6308
▁squad	-6309
▁Dam	-6310
▁officially	-6311
ERS	-6312
alle	-6313
▁sky	-6314
▁Ins	-6315
▁comparison	-6316
▁actor	-6317
rome	-6318
▁knowing	-6319
▁wal	-6320
▁uncle	-6321
▁Victor	-6322
utral	-6323
▁ring	-6324
▁Palestinian	-6325
power	-6326
▁schol	-6327
▁crucial	-6328
▁directed	-6329
awa	-6330
▁harder	-6331
▁inspired	-6332
▁observ	-6333
▁Special	-6334
▁controversial	-6335
▁overwhel	-6336
▁wid	-6337
▁Thus	-6338
▁Hot	-6339
▁flo	-6340
▁Women	-6341
▁assets	-6342
▁Arch	-6343
▁fundamental	-6344
ati	-6345
gas	-6346
wan	-6347
▁phenomen	-6348
iami	-6349
▁Organ	-6350
ko	-6351
▁Arizona	-6352
▁Det	-6353
ceived	-6354
icken	-6355
▁repeatedly	-6356
▁relationships	-6357
azi	-6358
adel	-6359
▁Did	-6360
anchester	-6361
iciency	-6362
ez	-6363
ums	-6364
allas	-6365
▁escape	-6366
▁Ep	-6367
▁termin	-6368
▁upcoming	-6369
How	-6370
▁Ah	-6371
▁Defense	-6372
ugh	-6373
▁medic	-6374
andal	-6375
▁schedule	-6376
▁likes	-6377
▁rape	-6378
▁ending	-6379
▁pregn	-6380
azz	-6381
▁Jr	-6382
▁Greek	-6383
▁links	-6384
▁Fort	-6385
▁typical	-6386
▁offense	-6387
hem	-6388
▁maximum	-6389
▁protected	-6390
▁terrorism	-6391
lla	-6392
alty	-6393
▁kinds	-6394
▁Child	-6395
▁Irish	-6396
▁distinct	-6397
▁Cub	-6398
▁config	-6399
▁dealing	-6400
lock	-6401
▁Contin	-6402
▁conver	-6403
Get	-6404
IR	-6405
agan	-6406
▁Jews	-6407
▁Tw	-6408
va	-6409
name	-6410
▁Nations	-6411
Ar	-6412
▁End	-6413
ographic	-6414
▁alive	-6415
▁targeted	-6416
▁Key	-6417
▁habit	-6418
▁wire	-6419
▁crazy	-6420
foot	-6421
▁reco	-6422
▁resistance	-6423
▁truck	-6424
▁Bru	-6425
▁decline	-6426
▁database	-6427
▁county	-6428
▁struck	-6429
opher	-6430
▁tall	-6431
cers	-6432
▁pip	-6433
▁rub	-6434
▁Among	-6435
▁Jordan	-6436
▁Scotland	-6437
▁constant	-6438
▁drinking	-6439
▁Conf	-6440
▁confront	-6441
ellect	-6442
▁Class	-6443
▁reward	-6444
▁Use	-6445
▁zero	-6446
▁realized	-6447
▁apartment	-6448
▁Josh	-6449
asts	-6450
lder	-6451
▁precise	-6452
▁situations	-6453
▁empty	-6454
▁Rog	-6455
▁sole	-6456
▁suddenly	-6457
▁supports	-6458
▁competitive	-6459
▁Putin	-6460
▁Jersey	-6461
▁Person	-6462
▁requests	-6463
▁Inf	-6464
▁lock	-6465
▁risks	-6466
▁noticed	-6467
▁opponents	-6468
▁selected	-6469
ensity	-6470
▁chairman	-6471
▁Valley	-6472
game	-6473
fire	-6474
▁Manchester	-6475
▁blame	-6476
▁deeply	-6477
unning	-6478
▁publish	-6479
icul	-6480
iscons	-6481
▁hyd	-6482
▁impressive	-6483
▁contributed	-6484
▁Lew	-6485
ifies	-6486
▁extended	-6487
ciples	-6488
isconsin	-6489
urb	-6490
▁Academ	-6491
▁Dar	-6492
▁letters	-6493
▁encoun	-6494
▁View	-6495
iments	-6496
▁Civil	-6497
▁narrow	-6498
▁Network	-6499
▁subsid	-6500
American	-6501
▁congress	-6502
aze	-6503
mun	-6504
▁retain	-6505
anes	-6506
oh	-6507
▁worried	-6508
▁remote	-6509
'.	-6510
▁outcome	-6511
▁attacked	-6512
▁exciting	-6513
▁clar	-6514
OC	-6515
▁kil	-6516
▁promote	-6517
aug	-6518
▁Miami	-6519
▁ped	-6520
resent	-6521
▁Scient	-6522
▁cutting	-6523
▁channel	-6524
▁Dark	-6525
▁Make	-6526
▁aside	-6527
pool	-6528
▁assume	-6529
▁resulting	-6530
TA	-6531
▁gap	-6532
▁literally	-6533
▁Tony	-6534
▁retire	-6535
▁Houston	-6536
▁unknown	-6537
chain	-6538
▁approval	-6539
▁volume	-6540
▁recognize	-6541
ocratic	-6542
▁signing	-6543
▁western	-6544
▁unemploy	-6545
▁equival	-6546
oster	-6547
gor	-6548
▁hel	-6549
▁Hollywood	-6550
▁guidelines	-6551
▁latter	-6552
▁Georgia	-6553
▁sending	-6554
▁Viet	-6555
▁purs	-6556
▁SC	-6557
▁stronger	-6558
▁fixed	-6559
▁forth	-6560
▁promised	-6561
▁thread	-6562
▁suicide	-6563
▁understood	-6564
rors	-6565
FP	-6566
▁veget	-6567
onymous	-6568
▁sweet	-6569
wart	-6570
bar	-6571
▁Kn	-6572
▁observed	-6573
▁depth	-6574
▁unp	-6575
▁Joseph	-6576
▁purposes	-6577
TM	-6578
▁icon	-6579
▁phrase	-6580
▁tort	-6581
▁bench	-6582
▁mainstream	-6583
aa	-6584
▁Come	-6585
▁courts	-6586
▁Java	-6587
▁immigrants	-6588
▁femin	-6589
▁honor	-6590
▁TO	-6591
▁Night	-6592
▁illustr	-6593
yard	-6594
▁soul	-6595
▁amounts	-6596
▁constit	-6597
bal	-6598
▁Southern	-6599
▁Colorado	-6600
▁updated	-6601
▁chose	-6602
▁diagn	-6603
▁plastic	-6604
▁engage	-6605
▁paragraph	-6606
▁agenda	-6607
▁Through	-6608
regon	-6609
▁grass	-6610
rac	-6611
▁captured	-6612
sm	-6613
▁flex	-6614
▁Wisconsin	-6615
▁Cy	-6616
▁Coll	-6617
▁Disney	-6618
▁obtained	-6619
▁welcome	-6620
▁employee	-6621
▁province	-6622
▁mixed	-6623
▁Ap	-6624
▁IT	-6625
▁puts	-6626
▁disag	-6627
▁destroyed	-6628
▁Cruz	-6629
▁fasc	-6630
▁abortion	-6631
weight	-6632
ship	-6633
▁enthus	-6634
▁winner	-6635
▁fighters	-6636
▁Hun	-6637
▁Click	-6638
▁Dallas	-6639
▁engaged	-6640
▁houses	-6641
▁Administr	-6642
fast	-6643
▁goods	-6644
▁posts	-6645
inations	-6646
ingu	-6647
▁drawn	-6648
▁critics	-6649
▁baseball	-6650
rehens	-6651
▁Taylor	-6652
▁NASA	-6653
pected	-6654
▁profit	-6655
▁phase	-6656
▁Budd	-6657
▁asks	-6658
▁falling	-6659
otes	-6660
obile	-6661
ultural	-6662
rive	-6663
▁strongly	-6664
▁shares	-6665
osis	-6666
▁Rose	-6667
▁flying	-6668
def	-6669
▁shirt	-6670
▁satell	-6671
All	-6672
▁champion	-6673
▁deck	-6674
▁anyway	-6675
arn	-6676
▁Balt	-6677
ca	-6678
apes	-6679
▁merely	-6680
▁battery	-6681
▁exposed	-6682
▁Oper	-6683
otten	-6684
▁ruled	-6685
▁Nick	-6686
uated	-6687
▁stretch	-6688
woman	-6689
▁drag	-6690
▁Spain	-6691
▁mistake	-6692
▁Care	-6693
▁inqu	-6694
▁emissions	-6695
raid	-6696
▁chosen	-6697
orted	-6698
igation	-6699
▁Dun	-6700
▁somewhere	-6701
celer	-6702
▁Northern	-6703
▁franchise	-6704
▁defeat	-6705
▁tested	-6706
anny	-6707
▁mel	-6708
▁controlled	-6709
Al	-6710
▁Has	-6711
ems	-6712
▁Agency	-6713
▁newslet	-6714
▁arguments	-6715
▁journalists	-6716
▁Py	-6717
▁facilities	-6718
▁license	-6719
icer	-6720
▁punish	-6721
▁nomine	-6722
▁guitar	-6723
▁limits	-6724
rimination	-6725
▁pic	-6726
▁chances	-6727
▁agric	-6728
▁bunch	-6729
▁communications	-6730
oric	-6731
▁Kelly	-6732
▁oblig	-6733
▁opponent	-6734
▁Unfortunately	-6735
▁fuck	-6736
▁driven	-6737
tes	-6738
▁allies	-6739
▁extensive	-6740
▁ticket	-6741
▁Pacific	-6742
▁NY	-6743
To	-6744
▁wage	-6745
▁pover	-6746
▁rival	-6747
▁electricity	-6748
gery	-6749
▁Attorney	-6750
▁Ty	-6751
▁ru	-6752
▁ble	-6753
▁soil	-6754
lisher	-6755
▁deals	-6756
aire	-6757
▁taste	-6758
▁conven	-6759
▁degrees	-6760
▁concluded	-6761
▁tank	-6762
▁sympt	-6763
twitter	-6764
▁mainly	-6765
▁bear	-6766
▁hits	-6767
▁fifth	-6768
aser	-6769
▁Oregon	-6770
▁employment	-6771
rett	-6772
▁NBC	-6773
▁worldwide	-6774
▁Fre	-6775
▁poverty	-6776
vy	-6777
▁contem	-6778
▁desper	-6779
▁signal	-6780
iner	-6781
▁milk	-6782
▁regularly	-6783
▁IP	-6784
▁claiming	-6785
▁Ra	-6786
▁transp	-6787
."[	-6788
▁CD	-6789
owered	-6790
ads	-6791
▁Bowl	-6792
▁folks	-6793
ima	-6794
▁ok	-6795
▁plug	-6796
▁Never	-6797
Pe	-6798
▁Fred	-6799
▁explicit	-6800
▁constantly	-6801
▁angry	-6802
▁river	-6803
axy	-6804
▁founded	-6805
phy	-6806
▁dollar	-6807
▁Marc	-6808
▁gall	-6809
▁comic	-6810
inson	-6811
▁Asian	-6812
▁ocean	-6813
▁reveal	-6814
ni	-6815
▁gro	-6816
▁fees	-6817
▁Championship	-6818
▁imper	-6819
▁encourage	-6820
▁ideal	-6821
▁parking	-6822
cut	-6823
%)	-6824
mo	-6825
rary	-6826
▁Greg	-6827
▁Following	-6828
▁keeps	-6829
▁gotten	-6830
▁solutions	-6831
▁AR	-6832
owed	-6833
▁somehow	-6834
ura	-6835
▁iron	-6836
▁consumption	-6837
▁enemies	-6838
▁dinner	-6839
▁Company	-6840
▁ties	-6841
▁Kent	-6842
▁newly	-6843
▁fields	-6844
▁feelings	-6845
▁Such	-6846
▁Start	-6847
▁clubs	-6848
▁rejected	-6849
▁Henry	-6850
▁interpret	-6851
▁threatened	-6852
▁gear	-6853
▁magic	-6854
▁blocks	-6855
▁cycl	-6856
redit	-6857
▁myth	-6858
ocation	-6859
▁returning	-6860
era	-6861
▁excess	-6862
▁teaching	-6863
▁Full	-6864
▁assistance	-6865
▁scheme	-6866
▁therap	-6867
▁feedback	-6868
ORE	-6869
▁demands	-6870
▁Food	-6871
▁successfully	-6872
▁CH	-6873
▁OK	-6874
▁ju	-6875
▁Labor	-6876
isan	-6877
▁Kir	-6878
▁pin	-6879
iro	-6880
onic	-6881
▁Turn	-6882
▁funny	-6883
▁proof	-6884
itarian	-6885
▁protesters	-6886
▁McCain	-6887
▁Music	-6888
▁Orig	-6889
▁indicate	-6890
dit	-6891
eping	-6892
▁Educ	-6893
Man	-6894
ogan	-6895
▁Foreign	-6896
ivery	-6897
▁anymore	-6898
acking	-6899
orough	-6900
▁collected	-6901
▁Mu	-6902
uine	-6903
▁Gall	-6904
▁routine	-6905
▁attended	-6906
▁organized	-6907
▁estate	-6908
GBT	-6909
rete	-6910
essed	-6911
▁taught	-6912
▁depending	-6913
asters	-6914
▁techniques	-6915
▁fold	-6916
uce	-6917
everal	-6918
▁enjoyed	-6919
▁deleg	-6920
▁pilot	-6921
▁titles	-6922
▁Little	-6923
▁bid	-6924
▁recording	-6925
▁SP	-6926
▁Cross	-6927
▁Moore	-6928
zens	-6929
ali	-6930
rer	-6931
▁Latin	-6932
alo	-6933
")	-6934
lers	-6935
▁Ash	-6936
▁Jam	-6937
heast	-6938
▁tone	-6939
▁Jason	-6940
UR	-6941
▁Zeal	-6942
▁stim	-6943
▁comprom	-6944
you	-6945
lvan	-6946
▁Foot	-6947
po	-6948
mont	-6949
enny	-6950
▁Live	-6951
▁boot	-6952
▁Indeed	-6953
▁academic	-6954
▁Major	-6955
▁pounds	-6956
▁virtual	-6957
▁Ray	-6958
list	-6959
▁Bry	-6960
▁brown	-6961
▁tracks	-6962
▁FC	-6963
▁Light	-6964
▁admit	-6965
▁narrative	-6966
▁informed	-6967
▁Parliament	-6968
▁mayor	-6969
emen	-6970
car	-6971
inder	-6972
▁Fair	-6973
▁refugees	-6974
▁exists	-6975
▁capture	-6976
▁visited	-6977
▁Jac	-6978
ilarly	-6979
▁upper	-6980
▁recovery	-6981
▁recon	-6982
▁meetings	-6983
▁developer	-6984
▁intellect	-6985
Our	-6986
adelph	-6987
▁registered	-6988
▁dozen	-6989
▁terrible	-6990
▁Hard	-6991
herent	-6992
▁personally	-6993
▁manip	-6994
▁Data	-6995
▁Ut	-6996
umer	-6997
▁bath	-6998
▁trading	-6999
▁Identify	-7000
%.	-7001
▁founder	-7002
claim	-7003
elect	-7004
▁sight	-7005
▁processes	-7006
igg	-7007
▁Constitution	-7008
▁Columbia	-7009
▁profile	-7010
▁evil	-7011
▁marked	-7012
▁carefully	-7013
▁Program	-7014
mod	-7015
▁accomp	-7016
▁condem	-7017
▁nobody	-7018
▁portion	-7019
▁Anth	-7020
▁Fund	-7021
▁Royal	-7022
▁payment	-7023
▁basketball	-7024
▁thin	-7025
▁Source	-7026
▁controls	-7027
▁technologies	-7028
▁rig	-7029
she	-7030
iscal	-7031
ifications	-7032
iel	-7033
▁Vis	-7034
gender	-7035
othing	-7036
▁stead	-7037
▁granted	-7038
▁incredibly	-7039
Photo	-7040
▁inspir	-7041
▁patterns	-7042
▁sugar	-7043
▁Minnes	-7044
orne	-7045
▁Eastern	-7046
▁loan	-7047
lls	-7048
▁prominent	-7049
▁possession	-7050
▁NE	-7051
▁Albert	-7052
▁represented	-7053
▁Ger	-7054
▁yellow	-7055
▁producer	-7056
NC	-7057
▁Senator	-7058
sea	-7059
▁->	-7060
▁Os	-7061
quarters	-7062
▁reporter	-7063
eda	-7064
▁Set	-7065
▁param	-7066
▁grant	-7067
▁Market	-7068
▁medium	-7069
▁involves	-7070
▁Luc	-7071
▁description	-7072
▁busy	-7073
▁swim	-7074
▁Article	-7075
▁installed	-7076
ker	-7077
thew	-7078
▁perfectly	-7079
▁Cre	-7080
icate	-7081
▁Harry	-7082
▁raising	-7083
▁equivalent	-7084
▁incredible	-7085
▁chat	-7086
▁continuing	-7087
star	-7088
sa	-7089
▁bills	-7090
▁monit	-7091
iana	-7092
▁roles	-7093
owa	-7094
++	-7095
▁unw	-7096
▁Have	-7097
▁Kurd	-7098
▁spin	-7099
▁tied	-7100
▁($	-7101
adelphia	-7102
Pro	-7103
bell	-7104
▁aimed	-7105
▁weird	-7106
mad	-7107
▁stuck	-7108
▁Information	-7109
▁Video	-7110
▁valuable	-7111
▁borrow	-7112
▁adopted	-7113
▁survive	-7114
sex	-7115
▁loud	-7116
▁harass	-7117
bles	-7118
umin	-7119
ushed	-7120
enders	-7121
athered	-7122
inding	-7123
▁elsewhere	-7124
▁polls	-7125
ibilities	-7126
ded	-7127
▁shit	-7128
▁formal	-7129
▁corruption	-7130
▁Rick	-7131
▁scenes	-7132
▁hyp	-7133
▁reputation	-7134
▁bes	-7135
pread	-7136
▁complaint	-7137
sylvan	-7138
▁fake	-7139
▁root	-7140
▁Using	-7141
▁Zealand	-7142
▁sufficient	-7143
ria	-7144
▁contribute	-7145
intend	-7146
▁writers	-7147
▁tradition	-7148
zy	-7149
▁cerem	-7150
▁Without	-7151
▁championship	-7152
▁sharp	-7153
ja	-7154
ras	-7155
▁estimates	-7156
acc	-7157
▁serves	-7158
▁Premier	-7159
▁Pay	-7160
▁Ult	-7161
etary	-7162
▁decent	-7163
▁Sir	-7164
▁crop	-7165
▁hidden	-7166
▁aggressive	-7167
cow	-7168
▁vacc	-7169
▁Cir	-7170
▁sanctions	-7171
esc	-7172
inity	-7173
▁Battle	-7174
▁somebody	-7175
▁Minnesota	-7176
’.	-7177
▁regardless	-7178
▁Tem	-7179
▁Help	-7180
▁Turkish	-7181
▁stadium	-7182
ye	-7183
▁lawyers	-7184
▁transportation	-7185
bro	-7186
rical	-7187
▁intense	-7188
▁visible	-7189
▁defence	-7190
▁disaster	-7191
▁fought	-7192
ba	-7193
▁seats	-7194
▁forest	-7195
▁computers	-7196
▁Dead	-7197
▁innoc	-7198
▁thick	-7199
idespread	-7200
▁uncertain	-7201
▁Sus	-7202
▁proved	-7203
▁uniform	-7204
▁Lo	-7205
▁mo	-7206
abis	-7207
ogen	-7208
▁Oak	-7209
aturally	-7210
aun	-7211
▁extrem	-7212
▁pace	-7213
▁landsc	-7214
▁payments	-7215
▁recip	-7216
▁Coast	-7217
▁scenario	-7218
▁Pennsylvan	-7219
▁refers	-7220
▁Mid	-7221
▁Philadelphia	-7222
▁expectations	-7223
antic	-7224
▁Snow	-7225
idency	-7226
▁saved	-7227
▁machines	-7228
▁automatically	-7229
▁OF	-7230
▁clients	-7231
▁genuine	-7232
▁AL	-7233
▁Kat	-7234
▁obst	-7235
▁arrange	-7236
▁Call	-7237
▁racial	-7238
▁afraid	-7239
▁overse	-7240
▁strict	-7241
▁negotiations	-7242
▁Nation	-7243
▁Queen	-7244
▁History	-7245
▁warming	-7246
▁profession	-7247
▁Sometimes	-7248
mal	-7249
▁complicated	-7250
▁Mah	-7251
▁Ruby	-7252
▁Build	-7253
▁Sa	-7254
▁elev	-7255
▁compete	-7256
▁resulted	-7257
ml	-7258
▁index	-7259
▁anticip	-7260
▁unusual	-7261
imb	-7262
olis	-7263
▁browser	-7264
▁reviews	-7265
▁Series	-7266
▁synt	-7267
ogether	-7268
▁relief	-7269
▁dim	-7270
▁hadn	-7271
▁Judge	-7272
▁crypt	-7273
acked	-7274
aron	-7275
ules	-7276
▁distr	-7277
▁Academy	-7278
▁Services	-7279
rage	-7280
▁stab	-7281
▁operate	-7282
da	-7283
▁Transl	-7284
========	-7285
▁Prote	-7286
▁compens	-7287
▁km	-7288
▁coordin	-7289
▁emerged	-7290
▁bitcoin	-7291
ologists	-7292
▁je	-7293
upid	-7294
▁liked	-7295
▁Howard	-7296
imore	-7297
earing	-7298
▁implementation	-7299
▁fir	-7300
▁penalty	-7301
▁LGBT	-7302
gorith	-7303
▁principles	-7304
▁engineering	-7305
agram	-7306
▁Nob	-7307
▁bridge	-7308
Un	-7309
▁McG	-7310
▁tox	-7311
▁worker	-7312
▁withdraw	-7313
▁languages	-7314
▁yield	-7315
▁Avenue	-7316
▁coalition	-7317
▁Pen	-7318
▁pod	-7319
making	-7320
itals	-7321
▁clothes	-7322
▁recognized	-7323
▁Ext	-7324
▁tor	-7325
olves	-7326
▁enable	-7327
▁duty	-7328
▁Report	-7329
▁Pennsylvania	-7330
▁permanent	-7331
▁OS	-7332
▁Navy	-7333
▁phones	-7334
▁taxpay	-7335
▁structures	-7336
▁downtown	-7337
▁avo	-7338
▁awesome	-7339
▁electronic	-7340
ikes	-7341
▁counsel	-7342
▁generated	-7343
----------------	-7344
iler	-7345
▁LA	-7346
rient	-7347
▁inev	-7348
▁thousand	-7349
etts	-7350
rene	-7351
▁cited	-7352
TS	-7353
print	-7354
▁achieved	-7355
▁historic	-7356
Oh	-7357
▁’	-7358
ilton	-7359
anna	-7360
▁elite	-7361
ione	-7362
▁Development	-7363
bec	-7364
▁liquid	-7365
CE	-7366
▁Hon	-7367
▁ven	-7368
▁dance	-7369
▁passes	-7370
▁ads	-7371
▁audio	-7372
▁personnel	-7373
▁tom	-7374
▁laid	-7375
▁entit	-7376
▁Policy	-7377
▁creates	-7378
▁Mir	-7379
des	-7380
teen	-7381
eding	-7382
▁Several	-7383
gun	-7384
rypt	-7385
One	-7386
▁dict	-7387
▁musical	-7388
▁containing	-7389
ographer	-7390
▁beliefs	-7391
iger	-7392
bn	-7393
http	-7394
▁Head	-7395
▁hole	-7396
▁spaces	-7397
▁shortly	-7398
▁strikes	-7399
▁MS	-7400
Donald	-7401
▁entering	-7402
▁Sn	-7403
▁VR	-7404
fall	-7405
▁widespread	-7406
▁Hay	-7407
prise	-7408
there	-7409
▁Ros	-7410
▁gained	-7411
▁tickets	-7412
▁minority	-7413
igen	-7414
▁Nic	-7415
▁Tenn	-7416
▁gaming	-7417
▁friendly	-7418
▁participate	-7419
▁NHL	-7420
▁stable	-7421
jo	-7422
een	-7423
▁les	-7424
▁Bull	-7425
▁gonna	-7426
▁physic	-7427
▁neighb	-7428
test	-7429
▁Prince	-7430
istent	-7431
VER	-7432
▁cameras	-7433
▁mail	-7434
engers	-7435
▁Greece	-7436
sole	-7437
▁ham	-7438
▁legs	-7439
▁losses	-7440
▁recognition	-7441
At	-7442
▁Capt	-7443
▁vary	-7444
core	-7445
▁sup	-7446
▁discipl	-7447
▁exposure	-7448
appy	-7449
▁Global	-7450
▁airport	-7451
▁rarely	-7452
▁episodes	-7453
▁lights	-7454
athy	-7455
▁Philipp	-7456
found	-7457
▁genetic	-7458
▁wonderful	-7459
dy	-7460
▁layer	-7461
▁finance	-7462
▁lawmakers	-7463
▁Rand	-7464
▁neutral	-7465
▁listening	-7466
▁indicates	-7467
ls	-7468
▁beach	-7469
▁commonly	-7470
▁component	-7471
olen	-7472
▁meets	-7473
hent	-7474
produ	-7475
ounced	-7476
▁Stone	-7477
▁blind	-7478
▁NC	-7479
file	-7480
front	-7481
▁hang	-7482
▁Diego	-7483
▁shock	-7484
▁reaching	-7485
aus	-7486
▁Iowa	-7487
▁Matthew	-7488
▁spark	-7489
▁walls	-7490
▁behalf	-7491
▁incorpor	-7492
▁convicted	-7493
▁philosophy	-7494
etime	-7495
enth	-7496
ashes	-7497
▁enorm	-7498
▁smooth	-7499
▁acceler	-7500
▁eastern	-7501
▁veteran	-7502
ureau	-7503
ystem	-7504
▁vulnerable	-7505
▁cable	-7506
▁Inte	-7507
▁Price	-7508
▁programming	-7509
dr	-7510
▁ingred	-7511
▁roster	-7512
▁Medical	-7513
▁Cost	-7514
▁Hell	-7515
▁everywhere	-7516
▁Linux	-7517
arsh	-7518
asion	-7519
▁Conservative	-7520
▁Mayor	-7521
▁util	-7522
▁captain	-7523
▁hired	-7524
▁boat	-7525
▁Photos	-7526
▁exception	-7527
▁Hor	-7528
▁tag	-7529
▁drawing	-7530
LC	-7531
▁mountain	-7532
▁fault	-7533
▁photograph	-7534
▁destruction	-7535
▁corporations	-7536
▁reducing	-7537
month	-7538
viously	-7539
▁subjects	-7540
▁tasks	-7541
▁movements	-7542
▁reduction	-7543
▁bom	-7544
▁gir	-7545
▁pump	-7546
▁Reuters	-7547
▁summary	-7548
world	-7549
▁Professor	-7550
▁sensitive	-7551
▁struggling	-7552
▁spr	-7553
icket	-7554
▁fruit	-7555
▁surgery	-7556
))	-7557
▁Ly	-7558
▁advis	-7559
▁journalist	-7560
mate	-7561
▁Hind	-7562
abinet	-7563
▁Former	-7564
▁bacter	-7565
▁conspir	-7566
▁gathered	-7567
▁extension	-7568
▁uncom	-7569
▁upset	-7570
lan	-7571
uma	-7572
▁Was	-7573
away	-7574
▁tail	-7575
▁doors	-7576
▁Es	-7577
▁Hit	-7578
▁rose	-7579
▁Baltimore	-7580
Be	-7581
▁brut	-7582
▁plate	-7583
▁bra	-7584
▁Walker	-7585
▁stations	-7586
▁manufacturing	-7587
ouch	-7588
achus	-7589
▁murd	-7590
▁foundation	-7591
lfriend	-7592
ushing	-7593
▁_	-7594
▁publisher	-7595
▁permission	-7596
amber	-7597
▁consciousness	-7598
▁unex	-7599
▁branch	-7600
▁deeper	-7601
▁Patrick	-7602
▁ESP	-7603
▁apolog	-7604
▁suggesting	-7605
▁recru	-7606
▁establishment	-7607
▁referring	-7608
▁cyber	-7609
▁ships	-7610
▁("	-7611
▁rely	-7612
▁reprodu	-7613
▁comprehens	-7614
▁prepare	-7615
▁privile	-7616
▁foss	-7617
then	-7618
▁tip	-7619
▁normally	-7620
▁contracts	-7621
▁Pub	-7622
▁Keep	-7623
▁Additionally	-7624
page	-7625
oured	-7626
▁List	-7627
▁sacr	-7628
▁algorith	-7629
▁challenging	-7630
izon	-7631
▁Lind	-7632
People	-7633
▁IR	-7634
▁Liver	-7635
▁Moscow	-7636
▁fiction	-7637
interest	-7638
________________	-7639
ais	-7640
▁Blake	-7641
▁producing	-7642
MP	-7643
▁bread	-7644
▁Independ	-7645
▁gift	-7646
Bl	-7647
▁Brother	-7648
from	-7649
▁collapse	-7650
▁Medicine	-7651
▁principle	-7652
▁Administration	-7653
▁processing	-7654
▁Alab	-7655
▁websites	-7656
▁Education	-7657
▁association	-7658
▁Tri	-7659
▁array	-7660
▁headed	-7661
▁princip	-7662
▁Later	-7663
▁covers	-7664
▁dozens	-7665
▁illness	-7666
▁settlement	-7667
▁Analy	-7668
▁entity	-7669
▁shopping	-7670
ext	-7671
▁anger	-7672
▁horse	-7673
plete	-7674
▁fee	-7675
▁hide	-7676
▁casual	-7677
▁propag	-7678
▁discrimination	-7679
oen	-7680
▁reasoning	-7681
▁scores	-7682
▁%	-7683
▁HD	-7684
▁sin	-7685
inois	-7686
▁Cameron	-7687
▁Current	-7688
achusetts	-7689
▁advertising	-7690
▁practical	-7691
▁NAT	-7692
▁Email	-7693
post	-7694
▁tries	-7695
▁wheel	-7696
▁rapidly	-7697
▁lists	-7698
▁brothers	-7699
▁Radio	-7700
usse	-7701
▁toler	-7702
▁usage	-7703
▁divided	-7704
agger	-7705
▁deliber	-7706
▁legend	-7707
▁holiday	-7708
aning	-7709
▁Centre	-7710
▁ratio	-7711
▁interact	-7712
ho	-7713
who	-7714
▁Ba	-7715
▁Atlantic	-7716
olt	-7717
▁Bad	-7718
▁restrictions	-7719
▁rational	-7720
▁contained	-7721
▁progressive	-7722
pat	-7723
▁Lewis	-7724
▁Syd	-7725
▁exceed	-7726
▁Dig	-7727
▁recover	-7728
▁Lyn	-7729
▁Town	-7730
udes	-7731
▁campaigns	-7732
▁cha	-7733
profit	-7734
▁Writ	-7735
▁incent	-7736
▁symptoms	-7737
▁Ott	-7738
▁Death	-7739
▁Community	-7740
▁Hom	-7741
▁Having	-7742
▁involvement	-7743
MS	-7744
▁Award	-7745
▁translation	-7746
▁Justin	-7747
▁respectively	-7748
vard	-7749
eland	-7750
▁connections	-7751
▁Ren	-7752
aching	-7753
▁edition	-7754
▁forever	-7755
Ex	-7756
ami	-7757
▁rom	-7758
▁flash	-7759
▁invited	-7760
▁Division	-7761
▁interface	-7762
owing	-7763
▁vital	-7764
▁farmers	-7765
▁Massachusetts	-7766
▁loyal	-7767
▁nominee	-7768
▁external	-7769
▁finger	-7770
▁retired	-7771
zing	-7772
▁portray	-7773
▁Gov	-7774
▁priority	-7775
▁entertainment	-7776
▁ren	-7777
▁scoring	-7778
▁smoke	-7779
har	-7780
aka	-7781
▁Family	-7782
▁delivery	-7783
imp	-7784
case	-7785
▁cream	-7786
▁footage	-7787
▁purchased	-7788
umes	-7789
senal	-7790
▁aver	-7791
▁Adv	-7792
sect	-7793
icking	-7794
▁roads	-7795
▁robot	-7796
▁Alabama	-7797
▁Atlanta	-7798
ele	-7799
▁Pot	-7800
uts	-7801
iano	-7802
abeth	-7803
▁begun	-7804
▁rural	-7805
▁convin	-7806
▁diverse	-7807
▁unclear	-7808
▁independence	-7809
abs	-7810
▁Aud	-7811
▁devast	-7812
▁hitting	-7813
▁Pu	-7814
▁fears	-7815
▁soccer	-7816
arry	-7817
▁Dave	-7818
▁Austin	-7819
▁banned	-7820
▁riding	-7821
ogs	-7822
▁Illinois	-7823
▁NSA	-7824
burgh	-7825
▁salt	-7826
▁Whether	-7827
▁humanity	-7828
▁papers	-7829
▁Connect	-7830
▁ethnic	-7831
▁CO	-7832
▁III	-7833
▁actors	-7834
▁technique	-7835
▁interviews	-7836
aska	-7837
▁Roy	-7838
▁Arm	-7839
▁flaw	-7840
▁minds	-7841
▁steel	-7842
▁scream	-7843
mann	-7844
▁Action	-7845
▁Field	-7846
olph	-7847
▁preced	-7848
▁joy	-7849
▁Allen	-7850
▁arrive	-7851
▁exclusive	-7852
this	-7853
▁Bang	-7854
▁Conference	-7855
cover	-7856
▁firms	-7857
▁mining	-7858
▁featuring	-7859
▁indicated	-7860
▁Ross	-7861
▁brew	-7862
▁equally	-7863
▁viewers	-7864
▁fab	-7865
▁tackle	-7866
riers	-7867
▁Amendment	-7868
▁Golden	-7869
▁Gaza	-7870
▁comedy	-7871
▁Would	-7872
▁Kansas	-7873
▁perpet	-7874
▁mic	-7875
▁rif	-7876
▁entr	-7877
▁neck	-7878
lessly	-7879
▁Consider	-7880
etch	-7881
▁remem	-7882
▁Mexican	-7883
unior	-7884
▁Pass	-7885
▁Tour	-7886
▁constitutional	-7887
▁Anthony	-7888
▁Ask	-7889
▁coc	-7890
▁grav	-7891
▁highlights	-7892
▁Pop	-7893
▁Sydney	-7894
▁oxy	-7895
▁hook	-7896
arrass	-7897
hour	-7898
▁Sat	-7899
▁Final	-7900
▁colors	-7901
▁fiscal	-7902
▁unemployment	-7903
rine	-7904
▁Six	-7905
▁astron	-7906
▁Ocean	-7907
▁Marvel	-7908
▁Stadium	-7909
▁neighbour	-7910
iti	-7911
▁Anton	-7912
ifer	-7913
▁alien	-7914
▁proport	-7915
irts	-7916
▁Spring	-7917
▁QUESTION	-7918
▁equation	-7919
▁civilians	-7920
▁iP	-7921
▁lunch	-7922
▁thrown	-7923
▁Earlier	-7924
▁studied	-7925
including	-7926
CA	-7927
ouver	-7928
▁Common	-7929
ila	-7930
ira	-7931
angel	-7932
eman	-7933
▁Tai	-7934
▁inner	-7935
▁Bra	-7936
uties	-7937
▁backed	-7938
rolled	-7939
▁invent	-7940
acket	-7941
▁Non	-7942
▁jury	-7943
▁grounds	-7944
ATE	-7945
▁wing	-7946
▁Dev	-7947
▁Mrs	-7948
▁UFC	-7949
▁Empire	-7950
▁platforms	-7951
▁notion	-7952
▁silver	-7953
▁investigate	-7954
▁criteria	-7955
esy	-7956
▁Core	-7957
▁Short	-7958
▁contributions	-7959
imm	-7960
▁Broad	-7961
▁Belg	-7962
iy	-7963
▁www	-7964
▁reven	-7965
▁stupid	-7966
▁statistics	-7967
".[	-7968
▁Point	-7969
▁Bernie	-7970
▁medicine	-7971
▁Design	-7972
▁Bon	-7973
▁elig	-7974
▁theat	-7975
▁expanded	-7976
rous	-7977
▁anybody	-7978
▁intellectual	-7979
▁deputy	-7980
▁spoken	-7981
▁visitors	-7982
▁AS	-7983
▁falls	-7984
▁Square	-7985
▁prosec	-7986
▁proven	-7987
▁joining	-7988
▁ESPN	-7989
▁Liverpool	-7990
EA	-7991
▁terrorists	-7992
lah	-7993
ester	-7994
▁Ark	-7995
▁discovery	-7996
▁Eliz	-7997
▁Sony	-7998
▁bail	-7999
▁Related	-8000
▁affairs	-8001
▁Environment	-8002
uten	-8003
cr	-8004
▁WH	-8005
▁fro	-8006
▁Plus	-8007
▁stone	-8008
CS	-8009
▁overwhelming	-8010
’,	-8011
yer	-8012
▁lobby	-8013
▁Ale	-8014
▁depos	-8015
▁passengers	-8016
oln	-8017
▁Ice	-8018
▁hint	-8019
▁noise	-8020
▁handful	-8021
▁disagree	-8022
▁strategic	-8023
▁Ball	-8024
▁wars	-8025
▁factory	-8026
▁frag	-8027
▁absor	-8028
▁barely	-8029
▁Student	-8030
▁settings	-8031
▁publication	-8032
▁temperatures	-8033
osexual	-8034
▁Sweden	-8035
▁racist	-8036
isp	-8037
dem	-8038
▁Custom	-8039
▁contrad	-8040
▁Ho	-8041
ifest	-8042
▁welf	-8043
▁guest	-8044
▁representative	-8045
▁jur	-8046
ancouver	-8047
fare	-8048
▁Stat	-8049
▁cos	-8050
FF	-8051
inking	-8052
▁throwing	-8053
▁reader	-8054
▁stayed	-8055
ijing	-8056
iversary	-8057
▁Jay	-8058
▁Cow	-8059
▁Could	-8060
▁threw	-8061
▁Ministry	-8062
iture	-8063
▁improvements	-8064
▁Cooper	-8065
▁depends	-8066
▁relax	-8067
▁correctly	-8068
▁attached	-8069
▁Pent	-8070
▁fulf	-8071
▁awareness	-8072
hemat	-8073
▁welfare	-8074
▁relation	-8075
▁ABC	-8076
usted	-8077
▁bars	-8078
▁soph	-8079
▁categories	-8080
▁amid	-8081
ennis	-8082
▁Chair	-8083
▁translated	-8084
▁surf	-8085
▁recommended	-8086
▁Ak	-8087
ille	-8088
▁Iraqi	-8089
▁ownership	-8090
▁bub	-8091
rets	-8092
walk	-8093
▁Moon	-8094
▁fallen	-8095
▁collective	-8096
dri	-8097
▁Beach	-8098
▁Revolution	-8099
ecut	-8100
▁personality	-8101
▁Corpor	-8102
▁covering	-8103
door	-8104
▁Freedom	-8105
▁Technology	-8106
▁poly	-8107
bridge	-8108
▁compare	-8109
▁attacking	-8110
▁instrument	-8111
sels	-8112
▁Gun	-8113
▁terr	-8114
▁efficiency	-8115
▁mole	-8116
▁Eth	-8117
▁trigger	-8118
]:	-8119
aver	-8120
▁menu	-8121
▁peak	-8122
unicip	-8123
▁Edward	-8124
▁hardly	-8125
▁conversations	-8126
isa	-8127
▁handed	-8128
▁Provide	-8129
▁citizen	-8130
▁NOT	-8131
shire	-8132
cific	-8133
▁careful	-8134
▁Dub	-8135
▁raw	-8136
ultane	-8137
▁remarks	-8138
▁discussions	-8139
▁overt	-8140
▁horror	-8141
▁twenty	-8142
▁Main	-8143
▁luck	-8144
▁logic	-8145
▁trem	-8146
aret	-8147
▁Master	-8148
▁absence	-8149
▁estimate	-8150
▁register	-8151
TH	-8152
▁scholars	-8153
BO	-8154
▁drama	-8155
▁investigating	-8156
▁Sarah	-8157
▁Buff	-8158
▁tomorrow	-8159
Getty	-8160
otype	-8161
▁dish	-8162
▁Dutch	-8163
▁Museum	-8164
▁define	-8165
▁diversity	-8166
▁attempting	-8167
Two	-8168
▁Total	-8169
▁hockey	-8170
ui	-8171
▁Exper	-8172
▁breaks	-8173
▁satellite	-8174
▁accomplish	-8175
▁Ur	-8176
▁suffer	-8177
▁spiritual	-8178
▁appreciate	-8179
▁populations	-8180
▁Harvard	-8181
▁failing	-8182
▁touchdown	-8183
▁waves	-8184
▁Iranian	-8185
▁Intell	-8186
▁Cook	-8187
▁dramatic	-8188
▁Vancouver	-8189
▁abandoned	-8190
▁Guardian	-8191
▁temporary	-8192
▁implemented	-8193
PG	-8194
▁SS	-8195
▁sty	-8196
▁Title	-8197
▁sorry	-8198
▁suspected	-8199
▁Write	-8200
▁controversy	-8201
rik	-8202
icity	-8203
Im	-8204
▁pron	-8205
▁lying	-8206
▁convinced	-8207
▁Beijing	-8208
▁offices	-8209
▁anxiety	-8210
▁licens	-8211
▁scandal	-8212
▁improving	-8213
▁ON	-8214
▁Son	-8215
acon	-8216
▁CBS	-8217
▁bowl	-8218
▁testim	-8219
▁instructions	-8220
isk	-8221
▁Santa	-8222
▁versus	-8223
▁porn	-8224
▁smile	-8225
▁ignore	-8226
▁wine	-8227
▁dynamic	-8228
▁ultimate	-8229
▁inches	-8230
▁Ten	-8231
▁tow	-8232
▁races	-8233
▁opinions	-8234
▁marks	-8235
▁appointed	-8236
▁fantastic	-8237
▁girlfriend	-8238
▁educational	-8239
▁substantial	-8240
FA	-8241
▁referend	-8242
▁resource	-8243
▁distributed	-8244
▁stored	-8245
▁improvement	-8246
annels	-8247
▁stake	-8248
▁samples	-8249
▁regulation	-8250
▁paralle	-8251
▁headquarters	-8252
▁survival	-8253
▁registr	-8254
▁suspended	-8255
▁accus	-8256
▁brill	-8257
EE	-8258
▁wrest	-8259
With	-8260
oding	-8261
▁extend	-8262
▁cust	-8263
▁Bron	-8264
▁Engine	-8265
▁rescue	-8266
▁fantasy	-8267
▁NATO	-8268
▁Football	-8269
</	-8270
▁Anderson	-8271
▁fed	-8272
▁lowest	-8273
▁embarrass	-8274
ihad	-8275
▁moon	-8276
▁enormous	-8277
▁Yeah	-8278
unes	-8279
▁dad	-8280
▁Tech	-8281
agh	-8282
▁addressed	-8283
▁guarantee	-8284
obs	-8285
▁Cro	-8286
itary	-8287
▁beauty	-8288
▁formation	-8289
▁depression	-8290
keep	-8291
▁Ont	-8292
▁Unlike	-8293
▁promises	-8294
▁Maryland	-8295
xit	-8296
▁Season	-8297
▁stolen	-8298
ethe	-8299
▁Olympic	-8300
▁Elizabeth	-8301
▁trained	-8302
▁Find	-8303
▁scope	-8304
hot	-8305
▁SH	-8306
▁mentions	-8307
ributes	-8308
▁speaker	-8309
▁investigators	-8310
▁Der	-8311
▁Pit	-8312
▁Event	-8313
▁Marsh	-8314
ivals	-8315
▁presum	-8316
▁screens	-8317
▁attitude	-8318
ika	-8319
▁ridicul	-8320
▁cannabis	-8321
▁preparing	-8322
▁Hospital	-8323
▁incidents	-8324
▁institution	-8325
worth	-8326
▁Sure	-8327
▁displ	-8328
▁monitor	-8329
▁Equ	-8330
▁inject	-8331
▁subsequent	-8332
%,	-8333
mers	-8334
▁waters	-8335
▁initiative	-8336
▁Base	-8337
▁Norm	-8338
▁Indiana	-8339
▁Creat	-8340
▁Indust	-8341
▁behaviour	-8342
▁encouraged	-8343
log	-8344
oval	-8345
▁transgender	-8346
▁popularity	-8347
Every	-8348
▁inquir	-8349
▁Pack	-8350
▁kitchen	-8351
uros	-8352
▁singer	-8353
▁seemingly	-8354
▁€	-8355
▁visiting	-8356
▁viewed	-8357
▁museum	-8358
▁democratic	-8359
BM	-8360
lad	-8361
▁Update	-8362
▁variable	-8363
▁shoes	-8364
▁Az	-8365
comes	-8366
rogen	-8367
▁Age	-8368
▁Gulf	-8369
▁eggs	-8370
▁overs	-8371
▁Bruce	-8372
iability	-8373
AG	-8374
▁Low	-8375
▁acid	-8376
veland	-8377
itage	-8378
▁resign	-8379
▁activist	-8380
▁shoulder	-8381
▁innovation	-8382
▁joke	-8383
▁Vegas	-8384
▁legitimate	-8385
▁protecting	-8386
▁Ast	-8387
▁divor	-8388
▁consistently	-8389
RI	-8390
▁oxygen	-8391
▁heading	-8392
phones	-8393
▁closing	-8394
Qu	-8395
bi	-8396
ige	-8397
▁PD	-8398
▁conce	-8399
▁Graham	-8400
▁profits	-8401
▁complaints	-8402
▁Chel	-8403
▁Credit	-8404
▁warrant	-8405
▁fu	-8406
aping	-8407
▁smell	-8408
▁thorough	-8409
▁mad	-8410
▁tea	-8411
▁intervention	-8412
▁Fall	-8413
▁barrel	-8414
▁recall	-8415
▁Ted	-8416
▁Getty	-8417
iece	-8418
▁Mill	-8419
▁Vietnam	-8420
▁dialogue	-8421
▁simultane	-8422
▁trave	-8423
▁tweeted	-8424
▁Ali	-8425
▁drew	-8426
▁framework	-8427
▁literature	-8428
▁Fact	-8429
▁domain	-8430
Well	-8431
▁noting	-8432
▁salary	-8433
▁midfield	-8434
▁gal	-8435
▁march	-8436
▁replacement	-8437
ses	-8438
▁missile	-8439
▁mistakes	-8440
▁partnership	-8441
eters	-8442
ommod	-8443
▁lucky	-8444
ieties	-8445
▁dump	-8446
lahoma	-8447
▁Kong	-8448
▁Being	-8449
▁occurs	-8450
▁Captain	-8451
▁stages	-8452
▁Support	-8453
HS	-8454
▁Five	-8455
▁Front	-8456
▁shout	-8457
▁ranked	-8458
▁ranks	-8459
▁birthday	-8460
▁concrete	-8461
▁handling	-8462
▁landscape	-8463
▁Kar	-8464
▁speaks	-8465
iban	-8466
▁Roberts	-8467
▁discount	-8468
gener	-8469
▁judges	-8470
cience	-8471
ources	-8472
▁revel	-8473
▁Batman	-8474
▁pursue	-8475
▁awarded	-8476
▁centers	-8477
▁birds	-8478
▁chapter	-8479
maker	-8480
▁Brew	-8481
▁homeless	-8482
▁classified	-8483
▁Bal	-8484
▁copies	-8485
▁petition	-8486
aware	-8487
issue	-8488
▁MORE	-8489
▁assign	-8490
▁naturally	-8491
▁mortg	-8492
::	-8493
▁Sel	-8494
rooms	-8495
ropri	-8496
▁Line	-8497
▁weigh	-8498
▁Carter	-8499
▁locked	-8500
▁actively	-8501
▁translate	-8502
bow	-8503
▁cul	-8504
▁Copy	-8505
▁swing	-8506
inch	-8507
▁Gary	-8508
▁scar	-8509
▁replied	-8510
▁Christians	-8511
▁okay	-8512
usalem	-8513
▁grade	-8514
▁deficit	-8515
▁persons	-8516
▁inflation	-8517
Do	-8518
geon	-8519
▁authent	-8520
▁virtually	-8521
rec	-8522
aeda	-8523
incoln	-8524
izer	-8525
▁blank	-8526
▁delic	-8527
▁Silver	-8528
aval	-8529
pa	-8530
▁>>	-8531
agic	-8532
▁Arabia	-8533
iden	-8534
▁cro	-8535
▁monitoring	-8536
rows	-8537
▁Abb	-8538
nedy	-8539
pload	-8540
▁Assad	-8541
▁legacy	-8542
▁clothing	-8543
▁chicken	-8544
▁healthcare	-8545
▁Las	-8546
▁Yang	-8547
▁reads	-8548
▁advocates	-8549
stract	-8550
▁landing	-8551
▁assessment	-8552
▁requested	-8553
rell	-8554
▁kilomet	-8555
▁referendum	-8556
▁loans	-8557
inating	-8558
▁Cleveland	-8559
▁membership	-8560
PP	-8561
zed	-8562
▁Pict	-8563
connect	-8564
▁unc	-8565
▁Sams	-8566
▁coaches	-8567
▁Everyone	-8568
▁Patri	-8569
▁wages	-8570
▁Jean	-8571
▁cogn	-8572
▁affili	-8573
▁reveals	-8574
▁Metro	-8575
▁Governor	-8576
▁supplies	-8577
▁celebrate	-8578
▁criticized	-8579
▁exch	-8580
▁Mov	-8581
▁ages	-8582
ocolate	-8583
▁Doctor	-8584
▁transit	-8585
▁Moreover	-8586
ela	-8587
▁maintaining	-8588
iate	-8589
ection	-8590
▁wealthy	-8591
yo	-8592
These	-8593
▁Leon	-8594
▁”	-8595
▁outs	-8596
▁Prop	-8597
aga	-8598
hire	-8599
▁foods	-8600
▁bow	-8601
▁prepar	-8602
▁Alexander	-8603
▁voter	-8604
igate	-8605
▁wedd	-8606
▁Warren	-8607
▁representing	-8608
don	-8609
▁Hawai	-8610
▁loose	-8611
▁Oklahoma	-8612
▁universities	-8613
BN	-8614
PM	-8615
UL	-8616
▁insisted	-8617
▁acknowledged	-8618
▁architecture	-8619
Yes	-8620
▁fossil	-8621
▁Control	-8622
▁borders	-8623
▁appearances	-8624
▁Hold	-8625
▁accommod	-8626
▁au	-8627
▁iOS	-8628
▁Xbox	-8629
▁gent	-8630
hr	-8631
▁emotions	-8632
▁implies	-8633
arms	-8634
▁Cra	-8635
▁Unt	-8636
▁clock	-8637
▁hung	-8638
▁premium	-8639
asty	-8640
weet	-8641
▁dust	-8642
encing	-8643
▁drove	-8644
▁funded	-8645
die	-8646
▁Mit	-8647
▁acquired	-8648
▁weekly	-8649
▁approached	-8650
hatt	-8651
▁Early	-8652
fr	-8653
was	-8654
▁Ha	-8655
▁dates	-8656
▁Tennes	-8657
▁WW	-8658
oded	-8659
▁lad	-8660
onder	-8661
▁Hong	-8662
reprene	-8663
EG	-8664
▁Po	-8665
serv	-8666
▁gains	-8667
▁Jonathan	-8668
▁inequ	-8669
▁Dream	-8670
▁Swit	-8671
▁Alan	-8672
▁Sean	-8673
▁comprehensive	-8674
!)	-8675
ean	-8676
otyp	-8677
▁sovere	-8678
▁plain	-8679
▁Lincoln	-8680
▁documentary	-8681
▁console	-8682
▁monthly	-8683
▁savings	-8684
PC	-8685
osa	-8686
▁aer	-8687
rimin	-8688
▁blocked	-8689
▁fighter	-8690
▁Scottish	-8691
▁encounter	-8692
▁proposals	-8693
▁auto	-8694
▁maintained	-8695
▁Tro	-8696
▁scan	-8697
ón	-8698
▁AND	-8699
▁cow	-8700
inals	-8701
▁incorrect	-8702
▁ho	-8703
▁skept	-8704
uted	-8705
▁Iron	-8706
▁universal	-8707
.-	-8708
App	-8709
▁Lear	-8710
▁quote	-8711
▁whereas	-8712
▁Remember	-8713
▁dismissed	-8714
oli	-8715
▁urged	-8716
▁ignored	-8717
▁Jerusalem	-8718
▁Girl	-8719
▁Bible	-8720
▁Trib	-8721
▁buff	-8722
▁Sound	-8723
▁discussing	-8724
▁flags	-8725
▁entitled	-8726
▁rhet	-8727
▁Simon	-8728
▁bottle	-8729
▁Portland	-8730
▁investigations	-8731
osystem	-8732
▁Berlin	-8733
▁breath	-8734
▁saving	-8735
▁Kennedy	-8736
▁responses	-8737
esty	-8738
▁Mult	-8739
ordinary	-8740
▁ceremony	-8741
▁î	-8742
▁Hur	-8743
▁tie	-8744
ective	-8745
▁burning	-8746
OK	-8747
mans	-8748
▁permit	-8749
————————	-8750
▁sequence	-8751
▁mechanism	-8752
▁roof	-8753
▁Intel	-8754
▁festival	-8755
yes	-8756
Some	-8757
▁Priv	-8758
▁UC	-8759
ixture	-8760
▁prisoners	-8761
▁Sud	-8762
▁genre	-8763
intendo	-8764
▁logical	-8765
▁Vice	-8766
▁compe	-8767
▁spokesperson	-8768
▁channels	-8769
▁None	-8770
minute	-8771
▁export	-8772
▁demonstrated	-8773
▁McK	-8774
orous	-8775
▁Tele	-8776
▁ramp	-8777
▁Samsung	-8778
▁Associated	-8779
▁unexpected	-8780
emed	-8781
iley	-8782
▁Hamilton	-8783
▁Bow	-8784
▁lets	-8785
▁tape	-8786
▁hoped	-8787
▁providers	-8788
▁implications	-8789
backs	-8790
berry	-8791
fund	-8792
▁Link	-8793
▁Figure	-8794
▁Others	-8795
▁mit	-8796
isons	-8797
▁Deter	-8798
▁veterans	-8799
▁tips	-8800
▁abroad	-8801
▁render	-8802
▁releases	-8803
▁Pick	-8804
▁deny	-8805
▁restaurants	-8806
thon	-8807
▁checks	-8808
▁Chelsea	-8809
gus	-8810
ounce	-8811
▁exit	-8812
▁rooms	-8813
theless	-8814
▁tactics	-8815
▁focusing	-8816
oenix	-8817
assador	-8818
▁wider	-8819
▁warn	-8820
▁retirement	-8821
▁generations	-8822
Script	-8823
▁elder	-8824
▁virus	-8825
▁principal	-8826
▁programme	-8827
fol	-8828
▁puzz	-8829
▁racism	-8830
▁titled	-8831
▁strip	-8832
▁Comb	-8833
▁Execut	-8834
▁ves	-8835
▁Wales	-8836
▁reliable	-8837
▁conspiracy	-8838
▁span	-8839
▁loves	-8840
▁Intelligence	-8841
▁conventional	-8842
▁Rather	-8843
▁Ever	-8844
▁answered	-8845
▁childhood	-8846
▁Furthermore	-8847
ctic	-8848
▁Oakland	-8849
iki	-8850
▁tired	-8851
▁drives	-8852
oker	-8853
▁nin	-8854
▁sear	-8855
▁smoking	-8856
▁introduction	-8857
▁Est	-8858
▁settled	-8859
▁competing	-8860
▁blast	-8861
ificial	-8862
▁ordinary	-8863
▁producers	-8864
▁consideration	-8865
▁dub	-8866
arity	-8867
▁targeting	-8868
inf	-8869
▁butt	-8870
▁enthusi	-8871
▁designs	-8872
▁upgrade	-8873
▁whenever	-8874
▁introduce	-8875
▁phenomenon	-8876
itol	-8877
acted	-8878
▁Liberal	-8879
▁Lt	-8880
▁Below	-8881
▁senator	-8882
▁hal	-8883
▁Hope	-8884
▁calm	-8885
▁chest	-8886
▁drone	-8887
▁Speaking	-8888
RL	-8889
rapped	-8890
scale	-8891
aki	-8892
high	-8893
▁Eag	-8894
▁desc	-8895
▁stability	-8896
▁congressional	-8897
▁fur	-8898
▁Denver	-8899
▁abilities	-8900
▁butter	-8901
▁employed	-8902
▁presidency	-8903
heim	-8904
break	-8905
▁Khan	-8906
▁grid	-8907
▁muscle	-8908
▁damaged	-8909
ught	-8910
▁Deb	-8911
▁Som	-8912
▁memories	-8913
ixed	-8914
ierce	-8915
▁protein	-8916
▁civilian	-8917
▁measured	-8918
▁Vik	-8919
▁Things	-8920
▁nomination	-8921
ahu	-8922
igs	-8923
▁Tel	-8924
ordon	-8925
▁Buddh	-8926
▁quoted	-8927
▁facilit	-8928
olds	-8929
igent	-8930
ington	-8931
▁Place	-8932
||	-8933
ouri	-8934
ingers	-8935
▁Tennessee	-8936
▁Tok	-8937
▁counts	-8938
▁greatly	-8939
▁gathering	-8940
Can	-8941
▁analyze	-8942
vo	-8943
▁difficulty	-8944
▁Taliban	-8945
▁frequency	-8946
▁testimony	-8947
▁contribution	-8948
odox	-8949
▁dying	-8950
▁provision	-8951
▁Vill	-8952
▁math	-8953
▁unions	-8954
▁pollution	-8955
amac	-8956
enez	-8957
▁Lim	-8958
▁shr	-8959
▁tap	-8960
igious	-8961
▁submit	-8962
▁Represent	-8963
aved	-8964
▁roy	-8965
after	-8966
▁maps	-8967
▁Caption	-8968
ao	-8969
aria	-8970
▁arts	-8971
asant	-8972
trans	-8973
▁Case	-8974
▁Know	-8975
ration	-8976
flix	-8977
math	-8978
▁Crit	-8979
iamond	-8980
▁substance	-8981
plate	-8982
▁tonight	-8983
▁concepts	-8984
▁conservatives	-8985
▁cance	-8986
▁Kentucky	-8987
▁na	-8988
fers	-8989
▁scientist	-8990
▁bin	-8991
▁arguing	-8992
▁adventure	-8993
▁violation	-8994
UN	-8995
▁Kl	-8996
▁unpre	-8997
▁Bud	-8998
▁Mach	-8999
▁broader	-9000
▁disrupt	-9001
▁equality	-9002
▁patch	-9003
▁wounded	-9004
iffs	-9005
▁Box	-9006
▁ballot	-9007
▁assumed	-9008
▁studying	-9009
▁roots	-9010
through	-9011
▁suspects	-9012
▁meaningful	-9013
▁anniversary	-9014
▁ingredients	-9015
▁politically	-9016
▁capabilities	-9017
abet	-9018
▁hyper	-9019
alia	-9020
▁Bureau	-9021
▁Nintendo	-9022
▁demanding	-9023
▁submitted	-9024
▁fool	-9025
▁vocal	-9026
Why	-9027
ito	-9028
▁semi	-9029
▁Access	-9030
▁Leader	-9031
▁possess	-9032
▁nerv	-9033
▁therapy	-9034
▁managing	-9035
▁Run	-9036
ipedia	-9037
▁dominant	-9038
made	-9039
▁Roll	-9040
▁~	-9041
▁GT	-9042
▁obs	-9043
organ	-9044
▁overseas	-9045
▁Saf	-9046
▁Trust	-9047
▁letting	-9048
▁reforms	-9049
▁reverse	-9050
elson	-9051
▁Trade	-9052
tenance	-9053
icts	-9054
▁rush	-9055
▁Harris	-9056
▁Beck	-9057
▁rook	-9058
▁Heart	-9059
▁organic	-9060
▁demonstrate	-9061
bits	-9062
▁fert	-9063
▁Andre	-9064
▁revers	-9065
▁Jenn	-9066
▁rear	-9067
rection	-9068
pton	-9069
they	-9070
icism	-9071
▁Utah	-9072
▁Yemen	-9073
hop	-9074
▁symp	-9075
estyle	-9076
▁benefic	-9077
▁performances	-9078
▁Galaxy	-9079
▁sevent	-9080
▁banking	-9081
▁assist	-9082
▁Channel	-9083
▁enhance	-9084
Star	-9085
▁Dick	-9086
ulating	-9087
▁accessible	-9088
WS	-9089
dated	-9090
▁assass	-9091
▁pipeline	-9092
held	-9093
▁silence	-9094
▁windows	-9095
argo	-9096
▁Had	-9097
▁Should	-9098
ctive	-9099
ylum	-9100
▁sed	-9101
▁Pope	-9102
▁sits	-9103
▁radiation	-9104
▁industries	-9105
▁brilliant	-9106
▁execution	-9107
▁predicted	-9108
▁hosp	-9109
▁Capital	-9110
▁dressed	-9111
▁strategies	-9112
▁Tax	-9113
umble	-9114
▁crimin	-9115
▁Translate	-9116
▁Palestinians	-9117
▁DV	-9118
bered	-9119
▁(“	-9120
▁Much	-9121
▁deadly	-9122
▁tracking	-9123
▁Pers	-9124
▁Wolf	-9125
▁tens	-9126
itting	-9127
▁eager	-9128
▁trillion	-9129
▁cig	-9130
▁compr	-9131
▁Resp	-9132
▁teeth	-9133
holders	-9134
▁firing	-9135
▁forecast	-9136
bu	-9137
amacare	-9138
mind	-9139
▁earthqu	-9140
▁staying	-9141
▁protocol	-9142
▁Disc	-9143
▁distingu	-9144
▁Left	-9145
▁exha	-9146
▁cheese	-9147
▁tables	-9148
▁streaming	-9149
▁remarkable	-9150
ixon	-9151
▁discour	-9152
▁bacteria	-9153
▁mathemat	-9154
▁promoting	-9155
jud	-9156
▁Ven	-9157
orious	-9158
▁errors	-9159
▁topics	-9160
▁inspect	-9161
▁Children	-9162
▁searching	-9163
only	-9164
▁spokeswoman	-9165
Not	-9166
▁bonus	-9167
▁boxes	-9168
▁forcing	-9169
▁Eff	-9170
ishop	-9171
▁Choose	-9172
▁rounds	-9173
inction	-9174
▁striking	-9175
▁fate	-9176
▁lapt	-9177
igenous	-9178
▁custody	-9179
▁surrounded	-9180
hers	-9181
▁affordable	-9182
********	-9183
▁ministry	-9184
▁transactions	-9185
ista	-9186
rated	-9187
▁stem	-9188
atar	-9189
▁meal	-9190
▁beating	-9191
▁diseases	-9192
▁engaging	-9193
istol	-9194
▁stepped	-9195
▁disorder	-9196
▁spots	-9197
▁Friend	-9198
▁repair	-9199
▁representatives	-9200
▁buck	-9201
ounding	-9202
▁assert	-9203
▁Charlie	-9204
▁innocent	-9205
omy	-9206
▁Arsenal	-9207
▁periods	-9208
▁lady	-9209
▁repeat	-9210
▁concert	-9211
eared	-9212
▁Comey	-9213
▁wanting	-9214
▁contacted	-9215
▁Sab	-9216
▁autonom	-9217
▁graduate	-9218
▁GO	-9219
▁burden	-9220
▁pulling	-9221
rix	-9222
▁assigned	-9223
▁frequent	-9224
▁procedures	-9225
oret	-9226
cedented	-9227
via	-9228
▁pa	-9229
cest	-9230
▁opens	-9231
▁ecosystem	-9232
▁threatening	-9233
even	-9234
▁mac	-9235
▁Barb	-9236
▁Magic	-9237
▁Staff	-9238
ompson	-9239
▁towns	-9240
▁Ontario	-9241
▁pointing	-9242
scri	-9243
lando	-9244
▁intim	-9245
▁surviv	-9246
▁legislative	-9247
▁Ban	-9248
archy	-9249
▁stops	-9250
▁centuries	-9251
▁objective	-9252
▁arbit	-9253
▁Code	-9254
▁Phoenix	-9255
portation	-9256
▁Li	-9257
▁emp	-9258
▁nic	-9259
apolis	-9260
▁alter	-9261
erts	-9262
▁Hart	-9263
▁Jerem	-9264
lee	-9265
▁ease	-9266
▁circle	-9267
▁perceived	-9268
▁tab	-9269
▁odds	-9270
▁persu	-9271
▁Portug	-9272
▁comics	-9273
▁shadow	-9274
▁engineer	-9275
▁garden	-9276
▁overcome	-9277
uj	-9278
conf	-9279
▁traveling	-9280
▁hosted	-9281
▁notable	-9282
▁expanding	-9283
▁experiments	-9284
ormon	-9285
▁alarm	-9286
▁picking	-9287
▁stating	-9288
▁secondary	-9289
▁differently	-9290
TT	-9291
▁GDP	-9292
ental	-9293
▁memor	-9294
▁Select	-9295
▁questioned	-9296
▁Nev	-9297
asury	-9298
▁glad	-9299
father	-9300
▁importantly	-9301
type	-9302
▁voices	-9303
sl	-9304
▁mood	-9305
▁orange	-9306
▁Occ	-9307
clusive	-9308
▁argues	-9309
▁defeated	-9310
▁painting	-9311
▁CR	-9312
▁compat	-9313
▁Entertain	-9314
▁Wel	-9315
aders	-9316
words	-9317
▁pharm	-9318
▁segment	-9319
▁prosecutors	-9320
▁smartphone	-9321
plus	-9322
▁gif	-9323
achel	-9324
▁physically	-9325
▁cooperation	-9326
▁counterpart	-9327
brid	-9328
izza	-9329
▁Order	-9330
▁rebels	-9331
▁endorse	-9332
▁Boe	-9333
▁judgment	-9334
▁Third	-9335
▁Brexit	-9336
▁Bridge	-9337
▁tremend	-9338
lined	-9339
▁SEC	-9340
▁Affairs	-9341
▁Official	-9342
▁followers	-9343
Hz	-9344
▁Bi	-9345
▁dispute	-9346
supp	-9347
▁explaining	-9348
▁investments	-9349
▁''	-9350
▁knee	-9351
▁ax	-9352
iffe	-9353
Trump	-9354
watch	-9355
author	-9356
erg	-9357
▁CL	-9358
▁recipe	-9359
▁shield	-9360
▁Netflix	-9361
stal	-9362
▁Ca	-9363
▁bab	-9364
▁intr	-9365
▁subur	-9366
▁openly	-9367
kee	-9368
▁aged	-9369
▁API	-9370
▁underlying	-9371
▁Area	-9372
▁surely	-9373
▁emerging	-9374
▁Crime	-9375
▁Tes	-9376
▁Cole	-9377
▁trials	-9378
bury	-9379
▁Mess	-9380
▁solo	-9381
▁Continue	-9382
▁constitu	-9383
▁regulatory	-9384
iox	-9385
▁Rome	-9386
section	-9387
▁communicate	-9388
▁collaps	-9389
▁Economic	-9390
▁manifest	-9391
▁Fal	-9392
▁municip	-9393
▁transaction	-9394
▁Les	-9395
apore	-9396
eness	-9397
▁keys	-9398
▁fabric	-9399
▁Assembly	-9400
▁sentenced	-9401
▁flour	-9402
▁Ze	-9403
▁Eve	-9404
Go	-9405
▁gross	-9406
▁beings	-9407
▁Opp	-9408
olitan	-9409
▁poet	-9410
▁shame	-9411
▁stamp	-9412
▁legally	-9413
ibl	-9414
▁torture	-9415
▁disappointed	-9416
▁seed	-9417
▁Phill	-9418
▁Thompson	-9419
▁lux	-9420
▁Film	-9421
ocument	-9422
▁analyst	-9423
▁receiver	-9424
iac	-9425
▁CS	-9426
▁racing	-9427
▁nu	-9428
▁nod	-9429
▁hanging	-9430
▁describing	-9431
▁functional	-9432
Sp	-9433
▁Hu	-9434
child	-9435
party	-9436
▁Hand	-9437
▁logo	-9438
▁Morgan	-9439
▁Reddit	-9440
▁Management	-9441
bled	-9442
▁picks	-9443
aration	-9444
orge	-9445
▁sne	-9446
▁Bloom	-9447
####	-9448
▁dies	-9449
▁lessons	-9450
AY	-9451
▁Kal	-9452
itudes	-9453
▁promising	-9454
boys	-9455
▁entreprene	-9456
▁nose	-9457
▁pocket	-9458
▁explicitly	-9459
▁constitution	-9460
▁tons	-9461
▁requiring	-9462
mic	-9463
▁Lam	-9464
itter	-9465
▁cler	-9466
▁rocket	-9467
▁carries	-9468
thur	-9469
enter	-9470
cos	-9471
▁tut	-9472
▁gest	-9473
▁scrut	-9474
▁margin	-9475
▁participation	-9476
ogy	-9477
▁Weiss	-9478
▁acceptable	-9479
acco	-9480
▁Sav	-9481
▁Coal	-9482
▁Hide	-9483
orship	-9484
▁cooking	-9485
▁interaction	-9486
vi	-9487
▁Bul	-9488
▁Hal	-9489
third	-9490
▁graphics	-9491
▁mini	-9492
▁Pentagon	-9493
▁defending	-9494
SW	-9495
AND	-9496
ernand	-9497
▁sustainable	-9498
▁mask	-9499
lly	-9500
▁kiss	-9501
▁Player	-9502
▁impression	-9503
▁presentation	-9504
▁ow	-9505
▁sorts	-9506
▁subscrib	-9507
▁Gil	-9508
▁Jane	-9509
▁adequ	-9510
▁pursu	-9511
▁precisely	-9512
▁coinc	-9513
▁fo	-9514
▁accompan	-9515
▁Entertainment	-9516
▁ا	-9517
olving	-9518
▁Until	-9519
▁module	-9520
▁interpre	-9521
▁moderate	-9522
ova	-9523
roph	-9524
▁badly	-9525
▁traged	-9526
pled	-9527
▁mos	-9528
▁Overall	-9529
▁propaganda	-9530
▁contemporary	-9531
akh	-9532
▁fled	-9533
▁Executive	-9534
▁eligible	-9535
▁missions	-9536
▁Name	-9537
▁Clark	-9538
▁Festival	-9539
▁Instagram	-9540
▁commander	-9541
▁executives	-9542
Ob	-9543
▁IM	-9544
▁consists	-9545
▁Store	-9546
▁spectrum	-9547
cor	-9548
▁Gro	-9549
▁dating	-9550
▁deserve	-9551
▁simultaneously	-9552
oser	-9553
market	-9554
▁violations	-9555
▁aims	-9556
▁guests	-9557
ulations	-9558
▁managers	-9559
▁suitable	-9560
necess	-9561
atively	-9562
▁athletes	-9563
▁sections	-9564
▁struggled	-9565
gered	-9566
▁Local	-9567
▁Officer	-9568
▁requirement	-9569
▁Michel	-9570
▁convert	-9571
▁procedure	-9572
cott	-9573
▁pour	-9574
▁stere	-9575
▁Sheriff	-9576
▁utility	-9577
▁migrants	-9578
▁attending	-9579
▁instances	-9580
▁gym	-9581
ighth	-9582
▁Obamacare	-9583
wa	-9584
▁bullet	-9585
▁publishing	-9586
▁blockchain	-9587
▁everyday	-9588
▁extraordinary	-9589
▁Cas	-9590
▁Burn	-9591
▁Near	-9592
▁Uber	-9593
vision	-9594
▁unve	-9595
AF	-9596
▁arc	-9597
▁Tower	-9598
▁arrival	-9599
eplay	-9600
▁gradually	-9601
usive	-9602
▁clip	-9603
▁Kick	-9604
▁recruit	-9605
cia	-9606
▁stance	-9607
▁addresses	-9608
▁Andy	-9609
istical	-9610
elle	-9611
▁Bol	-9612
▁males	-9613
▁Nether	-9614
▁outrage	-9615
▁professionals	-9616
▁partly	-9617
▁donations	-9618
Ind	-9619
UST	-9620
▁vig	-9621
▁Rest	-9622
▁Harper	-9623
▁Murray	-9624
▁Singapore	-9625
hattan	-9626
▁drunk	-9627
friendly	-9628
▁collaboration	-9629
▁unprecedented	-9630
ds	-9631
▁BC	-9632
▁DO	-9633
▁Circ	-9634
▁Hung	-9635
ateral	-9636
▁inhab	-9637
▁Teacher	-9638
▁charity	-9639
▁shipping	-9640
▁PH	-9641
▁Medicaid	-9642
▁meters	-9643
▁bicy	-9644
▁Change	-9645
▁trends	-9646
▁wedding	-9647
▁adap	-9648
▁toxic	-9649
▁adviser	-9650
▁insult	-9651
▁insight	-9652
▁islands	-9653
▁recommendations	-9654
isd	-9655
▁decor	-9656
▁prize	-9657
FO	-9658
▁inser	-9659
▁Online	-9660
▁metaph	-9661
▁seized	-9662
▁decrease	-9663
rowing	-9664
▁Capitol	-9665
▁servers	-9666
zo	-9667
▁Duke	-9668
▁talented	-9669
iev	-9670
▁Ku	-9671
▁undert	-9672
▁consent	-9673
▁invasion	-9674
div	-9675
▁nervous	-9676
▁citing	-9677
▁consensus	-9678
▁Hug	-9679
▁Digital	-9680
▁punishment	-9681
▁Brooklyn	-9682
▁newsletter	-9683
vertisements	-9684
ref	-9685
assy	-9686
emic	-9687
rint	-9688
nce	-9689
▁bio	-9690
TE	-9691
olly	-9692
▁Bes	-9693
▁Log	-9694
▁bags	-9695
▁gate	-9696
▁clinical	-9697
▁Determine	-9698
gi	-9699
hl	-9700
▁Move	-9701
▁Libya	-9702
▁harassment	-9703
▁Orlando	-9704
▁memo	-9705
▁recre	-9706
▁Product	-9707
▁coup	-9708
▁sheet	-9709
▁parallel	-9710
▁hospitals	-9711
▁Christopher	-9712
▁poison	-9713
▁vend	-9714
string	-9715
sub	-9716
▁Dur	-9717
eling	-9718
▁ratings	-9719
▁diplomatic	-9720
Now	-9721
▁adopt	-9722
▁Ox	-9723
angle	-9724
alysis	-9725
▁maintenance	-9726
▁euro	-9727
arency	-9728
▁battles	-9729
▁eliminate	-9730
▁concerning	-9731
atern	-9732
▁sixth	-9733
▁timing	-9734
▁resolve	-9735
RC	-9736
mir	-9737
▁Aaron	-9738
▁Giants	-9739
▁heroes	-9740
▁lineup	-9741
▁physics	-9742
▁neighbors	-9743
▁occasionally	-9744
leep	-9745
mble	-9746
▁Leban	-9747
▁colour	-9748
olas	-9749
acles	-9750
licop	-9751
▁accum	-9752
▁inequality	-9753
rons	-9754
▁owns	-9755
▁convince	-9756
??	-9757
abe	-9758
acre	-9759
▁couples	-9760
▁designer	-9761
▁hopefully	-9762
▁pill	-9763
▁Bond	-9764
▁backing	-9765
▁sessions	-9766
▁**	-9767
▁wet	-9768
ested	-9769
▁ther	-9770
▁ensuring	-9771
▁registration	-9772
▁knife	-9773
▁Library	-9774
▁genes	-9775
▁shocked	-9776
oca	-9777
scribe	-9778
▁perception	-9779
▁Raj	-9780
▁signals	-9781
▁subsequently	-9782
▁lake	-9783
▁influential	-9784
hero	-9785
▁Jerry	-9786
▁Missouri	-9787
▁engineers	-9788
▁biological	-9789
▁voc	-9790
▁Fran	-9791
▁encouraging	-9792
rying	-9793
▁Summer	-9794
▁divide	-9795
gal	-9796
umph	-9797
thodox	-9798
▁Nevada	-9799
▁superior	-9800
▁Ka	-9801
omed	-9802
▁removal	-9803
▁representation	-9804
ulty	-9805
▁Han	-9806
▁hire	-9807
▁inch	-9808
enezuel	-9809
▁coaching	-9810
▁theories	-9811
▁underground	-9812
▁YOU	-9813
agine	-9814
▁echo	-9815
▁lect	-9816
▁lifetime	-9817
▁occupied	-9818
AV	-9819
nie	-9820
▁SU	-9821
▁Mother	-9822
▁demanded	-9823
▁acknowledge	-9824
▁organisation	-9825
▁Eb	-9826
▁eru	-9827
chell	-9828
oting	-9829
▁Victoria	-9830
▁displayed	-9831
Fi	-9832
▁Grant	-9833
▁jumping	-9834
agen	-9835
▁Var	-9836
▁Argent	-9837
▁unfair	-9838
▁helicop	-9839
▁attractive	-9840
blem	-9841
will	-9842
orneys	-9843
▁Nothing	-9844
rez	-9845
▁Reagan	-9846
▁approaches	-9847
▁printed	-9848
▁rolling	-9849
▁billions	-9850
▁electron	-9851
▁Manhattan	-9852
▁inspiration	-9853
PL	-9854
cur	-9855
itual	-9856
track	-9857
▁dreams	-9858
▁dramatically	-9859
arre	-9860
▁Dor	-9861
▁Gordon	-9862
▁capitalism	-9863
▁annoy	-9864
▁stro	-9865
▁creatures	-9866
bes	-9867
..."	-9868
▁characteristics	-9869
▁!	-9870
▁align	-9871
▁bands	-9872
▁witnesses	-9873
▁confusion	-9874
▁Kit	-9875
▁guid	-9876
▁info	-9877
▁inher	-9878
▁Univers	-9879
▁п	-9880
▁CON	-9881
▁Trek	-9882
▁Delhi	-9883
▁soldier	-9884
▁expenses	-9885
▁prompted	-9886
▁Soft	-9887
▁fights	-9888
▁phrases	-9889
▁preferred	-9890
De	-9891
gence	-9892
▁Anna	-9893
▁Page	-9894
▁bold	-9895
▁thro	-9896
▁delight	-9897
▁singing	-9898
ocated	-9899
ante	-9900
arget	-9901
alling	-9902
▁fatal	-9903
check	-9904
▁cock	-9905
▁composed	-9906
▁reserved	-9907
▁tempor	-9908
▁neuro	-9909
▁hunting	-9910
▁associate	-9911
dep	-9912
▁entrance	-9913
▁signature	-9914
▁manufacturers	-9915
▁Song	-9916
▁Steel	-9917
▁Studies	-9918
▁Everything	-9919
▁shell	-9920
wich	-9921
▁gram	-9922
▁Saint	-9923
▁Wright	-9924
▁landed	-9925
cop	-9926
▁athe	-9927
▁kidn	-9928
alties	-9929
▁pleased	-9930
▁cabinet	-9931
▁interviewed	-9932
iens	-9933
▁jumped	-9934
▁cheaper	-9935
▁rhetoric	-9936
▁employers	-9937
▁psychological	-9938
▁`	-9939
▁Tam	-9940
▁setup	-9941
▁districts	-9942
▁ridiculous	-9943
hard	-9944
▁Gre	-9945
bling	-9946
▁Edit	-9947
▁gene	-9948
▁Editor	-9949
▁separated	-9950
PT	-9951
▁distur	-9952
▁exclud	-9953
▁evident	-9954
▁Montreal	-9955
▁Row	-9956
thood	-9957
bourne	-9958
▁Awards	-9959
▁mystery	-9960
▁removing	-9961
king	-9962
▁Cars	-9963
▁minimal	-9964
->	-9965
▁Pear	-9966
▁cinem	-9967
▁Return	-9968
▁buried	-9969
▁confused	-9970
▁weakness	-9971
▁Taiwan	-9972
bul	-9973
▁considerable	-9974
▁Mun	-9975
▁Osc	-9976
▁jer	-9977
▁Venezuel	-9978
▁strengthen	-9979
▁walks	-9980
▁Station	-9981
▁lifestyle	-9982
▁interpretation	-9983
▁IV	-9984
▁Ref	-9985
▁Sad	-9986
▁bias	-9987
▁lift	-9988
▁outlets	-9989
▁Egyptian	-9990
reck	-9991
▁Sin	-9992
const	-9993
screen	-9994
▁filter	-9995
▁summit	-9996
▁Pitts	-9997
▁escal	-9998
▁Alliance	-9999
▁Mountain	-10000
▁pregnant	-10001
▁FA	-10002
grade	-10003
Reuters	-10004
vernment	-10005
▁credits	-10006
▁Ent	-10007
▁Robin	-10008
▁deployed	-10009
▁isolated	-10010
▁playoffs	-10011
">	-10012
▁Jess	-10013
▁reserv	-10014
▁Adams	-10015
▁parad	-10016
▁correl	-10017
▁actress	-10018
▁password	-10019
▁integrity	-10020
▁struggles	-10021
▁fleet	-10022
▁Stanford	-10023
isdom	-10024
igration	-10025
oup	-10026
acts	-10027
stop	-10028
annon	-10029
▁Larry	-10030
▁knock	-10031
▁executed	-10032
▁passenger	-10033
Me	-10034
▁Authority	-10035
▁Oil	-10036
▁obsc	-10037
▁Future	-10038
▁lesson	-10039
▁Netherlands	-10040
may	-10041
▁ric	-10042
books	-10043
▁reviewer	-10044
▁volunteers	-10045
▁Pok	-10046
▁Marx	-10047
▁Blood	-10048
▁Records	-10049
being	-10050
ifice	-10051
▁mart	-10052
▁killer	-10053
▁ideology	-10054
oj	-10055
▁ancest	-10056
▁flavor	-10057
▁explosion	-10058
▁Abu	-10059
▁Pant	-10060
▁punch	-10061
▁suspic	-10062
election	-10063
hess	-10064
▁Gard	-10065
▁embrace	-10066
▁amendment	-10067
▁telephone	-10068
oop	-10069
▁Lad	-10070
▁Protection	-10071
▁choosing	-10072
▁q	-10073
▁drum	-10074
▁avail	-10075
▁Marine	-10076
▁Poland	-10077
▁economics	-10078
▁JavaScript	-10079
▁MLS	-10080
▁Movie	-10081
▁fel	-10082
cling	-10083
player	-10084
▁Indones	-10085
▁sleeping	-10086
▁happiness	-10087
Ne	-10088
grad	-10089
html	-10090
▁patent	-10091
▁advocate	-10092
▁orient	-10093
▁Maria	-10094
▁rookie	-10095
▁impacts	-10096
▁gri	-10097
▁Marg	-10098
▁Type	-10099
▁chips	-10100
▁checking	-10101
Up	-10102
appropri	-10103
▁anonymous	-10104
rate	-10105
▁Alp	-10106
▁harsh	-10107
▁promotion	-10108
▁cu	-10109
▁da	-10110
▁seeds	-10111
▁Warner	-10112
▁asylum	-10113
▁theater	-10114
▁Interest	-10115
▁deadline	-10116
▁outcomes	-10117
oft	-10118
▁Kr	-10119
▁exclusively	-10120
▁spo	-10121
left	-10122
▁HIV	-10123
▁asset	-10124
▁merch	-10125
▁journalism	-10126
▁agriculture	-10127
▁administrative	-10128
▁iPad	-10129
hammad	-10130
▁Within	-10131
▁regarded	-10132
ported	-10133
▁Reserve	-10134
▁interior	-10135
nan	-10136
commun	-10137
▁Jimmy	-10138
ceptions	-10139
▁evolved	-10140
▁prospects	-10141
▁desert	-10142
SD	-10143
▁Roger	-10144
missions	-10145
▁entities	-10146
▁modified	-10147
lu	-10148
tra	-10149
▁batter	-10150
▁bombing	-10151
▁expense	-10152
town	-10153
▁Father	-10154
▁convey	-10155
▁drinks	-10156
▁briefly	-10157
▁artificial	-10158
▁flee	-10159
▁rend	-10160
▁Mississ	-10161
▁perm	-10162
▁acquis	-10163
▁Command	-10164
▁peaceful	-10165
zech	-10166
▁loop	-10167
▁criminals	-10168
CO	-10169
pres	-10170
▁vit	-10171
▁disappear	-10172
▁Very	-10173
▁tear	-10174
▁Jeremy	-10175
▁Treasury	-10176
▁indu	-10177
▁nons	-10178
▁Kings	-10179
▁corrupt	-10180
▁bankrupt	-10181
▁Map	-10182
▁Antonio	-10183
▁instant	-10184
▁Campbell	-10185
▁destination	-10186
és	-10187
TER	-10188
▁PA	-10189
▁Bir	-10190
▁hip	-10191
▁Sche	-10192
elling	-10193
▁Robinson	-10194
▁Craig	-10195
▁utter	-10196
▁Modern	-10197
ippi	-10198
uther	-10199
oga	-10200
▁bits	-10201
▁camps	-10202
▁Morris	-10203
▁politician	-10204
gets	-10205
▁insect	-10206
▁fishing	-10207
▁posting	-10208
▁consecut	-10209
▁variables	-10210
▁imposed	-10211
▁inquiry	-10212
▁influenced	-10213
▁pride	-10214
▁refuse	-10215
▁Ay	-10216
adesh	-10217
▁Perry	-10218
▁sophistic	-10219
una	-10220
apper	-10221
▁curious	-10222
▁Canadians	-10223
▁concentration	-10224
▁awards	-10225
ATCH	-10226
looking	-10227
▁doct	-10228
hyth	-10229
llor	-10230
riors	-10231
▁flav	-10232
attered	-10233
▁fundra	-10234
▁examine	-10235
▁Wi	-10236
▁USB	-10237
instein	-10238
▁existed	-10239
▁fingers	-10240
▁engagement	-10241
otte	-10242
▁Nazi	-10243
▁cake	-10244
▁admin	-10245
▁premie	-10246
▁defender	-10247
gged	-10248
owned	-10249
▁Convention	-10250
▁Philippines	-10251
▁Beat	-10252
▁CA	-10253
▁Deep	-10254
▁Spir	-10255
cribed	-10256
fish	-10257
▁fails	-10258
▁reluct	-10259
▁dependent	-10260
ussell	-10261
▁visits	-10262
▁electoral	-10263
Mar	-10264
▁Bor	-10265
▁Ub	-10266
amous	-10267
imize	-10268
▁mile	-10269
▁prosecutor	-10270
▁Band	-10271
▁beef	-10272
▁kicked	-10273
▁layers	-10274
▁Between	-10275
▁dominated	-10276
▁Gh	-10277
▁bathroom	-10278
▁Produ	-10279
▁provider	-10280
rock	-10281
human	-10282
▁profound	-10283
rank	-10284
▁Psych	-10285
▁tower	-10286
▁rebuild	-10287
▁desperate	-10288
▁agreements	-10289
▁Rs	-10290
▁Whit	-10291
▁speakers	-10292
▁cognitive	-10293
aya	-10294
bian	-10295
lihood	-10296
ressing	-10297
▁presents	-10298
▁attracted	-10299
endar	-10300
▁embed	-10301
QL	-10302
strong	-10303
▁parks	-10304
▁tweets	-10305
▁Corporation	-10306
).[	-10307
▁restrict	-10308
▁occasional	-10309
▁rocks	-10310
▁blocking	-10311
▁produces	-10312
▁ministers	-10313
▁integration	-10314
base	-10315
▁Gib	-10316
▁exem	-10317
▁inaug	-10318
oz	-10319
▁continu	-10320
▁wondering	-10321
erted	-10322
leans	-10323
▁Hamp	-10324
▁steady	-10325
▁Standard	-10326
▁reflects	-10327
▁compensation	-10328
▁fer	-10329
▁lyr	-10330
ouses	-10331
▁lung	-10332
▁solely	-10333
▁unnecess	-10334
OV	-10335
▁ET	-10336
▁Jamie	-10337
▁lane	-10338
▁jihad	-10339
▁burned	-10340
pen	-10341
cour	-10342
inst	-10343
▁sauce	-10344
dam	-10345
▁toy	-10346
▁tum	-10347
▁Olympics	-10348
▁deemed	-10349
▁oppose	-10350
▁upload	-10351
▁tragedy	-10352
▁CPU	-10353
▁Nik	-10354
▁hes	-10355
▁Tesla	-10356
▁Collins	-10357
arted	-10358
▁belt	-10359
▁bure	-10360
▁irre	-10361
▁packages	-10362
▁tremendous	-10363
▁Bart	-10364
outheast	-10365
▁Snowden	-10366
▁focuses	-10367
▁gameplay	-10368
exp	-10369
rena	-10370
amine	-10371
▁Lady	-10372
▁quit	-10373
▁stom	-10374
vol	-10375
aste	-10376
some	-10377
▁momentum	-10378
▁Pa	-10379
▁ghost	-10380
▁brutal	-10381
▁guards	-10382
▁outstanding	-10383
ESS	-10384
has	-10385
▁complexity	-10386
▁Nap	-10387
▁stimul	-10388
▁Swedish	-10389
▁consecutive	-10390
▁exploration	-10391
▁interactions	-10392
elve	-10393
range	-10394
▁loaded	-10395
▁Financial	-10396
▁Clar	-10397
▁Chairman	-10398
▁creature	-10399
▁SE	-10400
odge	-10401
ollar	-10402
▁packed	-10403
▁opposing	-10404
▁survived	-10405
▁chocolate	-10406
Ps	-10407
▁participating	-10408
▁Jun	-10409
istle	-10410
▁Gill	-10411
▁analysts	-10412
▁forgotten	-10413
▁Ni	-10414
▁Imm	-10415
▁Phys	-10416
ropolitan	-10417
▁Wy	-10418
▁ally	-10419
▁golf	-10420
▁enjoying	-10421
▁DE	-10422
utter	-10423
▁Holy	-10424
▁Ottawa	-10425
▁advent	-10426
▁repeal	-10427
etheless	-10428
▁pleasure	-10429
▁evac	-10430
▁elabor	-10431
▁verb	-10432
rition	-10433
achment	-10434
▁accord	-10435
▁accuracy	-10436
▁speculation	-10437
▁junior	-10438
▁references	-10439
cal	-10440
cular	-10441
▁yeah	-10442
▁holes	-10443
▁developments	-10444
Just	-10445
▁Vlad	-10446
▁epic	-10447
▁Wayne	-10448
limited	-10449
▁quantum	-10450
▁preserve	-10451
reshold	-10452
▁Dragon	-10453
▁certific	-10454
inite	-10455
▁Luke	-10456
ст	-10457
▁abstract	-10458
oned	-10459
▁Cold	-10460
▁closest	-10461
▁mortgage	-10462
▁Wikipedia	-10463
▁mysterious	-10464
pg	-10465
white	-10466
▁Baker	-10467
▁murdered	-10468
▁taxpayers	-10469
▁Pittsburgh	-10470
▁hosts	-10471
▁tears	-10472
▁charging	-10473
▁Vo	-10474
atus	-10475
▁gentle	-10476
▁Independent	-10477
idal	-10478
▁chip	-10479
▁dual	-10480
▁leaked	-10481
▁Building	-10482
▁Finn	-10483
▁Mail	-10484
▁Mand	-10485
starter	-10486
▁jurisd	-10487
▁Orleans	-10488
▁transferred	-10489
zone	-10490
▁Vin	-10491
▁Talk	-10492
▁boom	-10493
▁spell	-10494
▁shelter	-10495
▁Download	-10496
▁households	-10497
bound	-10498
▁Rain	-10499
▁endors	-10500
▁mirror	-10501
▁impressed	-10502
▁Buy	-10503
▁tent	-10504
▁Comput	-10505
▁Looking	-10506
istically	-10507
ding	-10508
▁leak	-10509
▁Susan	-10510
▁Modi	-10511
▁Poll	-10512
▁synd	-10513
▁Number	-10514
▁revolutionary	-10515
SC	-10516
▁balls	-10517
▁affects	-10518
▁Reid	-10519
▁inherent	-10520
▁integrated	-10521
▁Inn	-10522
▁Emer	-10523
▁vert	-10524
▁dirty	-10525
security	-10526
▁monster	-10527
▁occasion	-10528
vironments	-10529
low	-10530
▁Nich	-10531
▁fits	-10532
▁Czech	-10533
▁Nature	-10534
▁hiring	-10535
▁ML	-10536
▁breast	-10537
▁Dog	-10538
▁fires	-10539
▁prost	-10540
▁transparency	-10541
▁Da	-10542
▁desp	-10543
▁oldest	-10544
▁robots	-10545
▁electrical	-10546
good	-10547
▁shops	-10548
▁immune	-10549
▁routes	-10550
▁formula	-10551
▁convenient	-10552
▁Dak	-10553
▁inevitable	-10554
GE	-10555
▁mice	-10556
ateful	-10557
▁Model	-10558
▁Tokyo	-10559
▁screw	-10560
▁tissue	-10561
▁Poké	-10562
▁expecting	-10563
uter	-10564
rator	-10565
▁Dean	-10566
▁Copyright	-10567
▁Nelson	-10568
▁Small	-10569
▁iconic	-10570
▁adoption	-10571
▁guidance	-10572
▁libr	-10573
▁subscri	-10574
▁innovative	-10575
By	-10576
▁Na	-10577
▁Mind	-10578
breaking	-10579
▁chemicals	-10580
▁SN	-10581
ials	-10582
▁Abd	-10583
block	-10584
build	-10585
▁figured	-10586
▁homosexual	-10587
▁residential	-10588
news	-10589
▁Laur	-10590
▁True	-10591
uating	-10592
▁robust	-10593
▁conflicts	-10594
▁recovered	-10595
▁bears	-10596
▁subtle	-10597
▁contrary	-10598
▁accurately	-10599
▁keen	-10600
▁chaos	-10601
▁safely	-10602
▁attorneys	-10603
▁provisions	-10604
▁Say	-10605
▁Mitchell	-10606
▁Louisiana	-10607
▁researcher	-10608
obby	-10609
▁Hotel	-10610
▁checked	-10611
Let	-10612
▁diver	-10613
▁Ronald	-10614
▁scared	-10615
▁themes	-10616
▁combine	-10617
▁editorial	-10618
icked	-10619
▁vent	-10620
▁probe	-10621
▁prosecution	-10622
▁advertisement	-10623
week	-10624
▁Lucas	-10625
▁theft	-10626
century	-10627
▁raises	-10628
▁trailer	-10629
▁imprison	-10630
▁Lie	-10631
about	-10632
▁slide	-10633
js	-10634
▁=>	-10635
Cont	-10636
uates	-10637
▁prol	-10638
▁restore	-10639
▁promoted	-10640
SE	-10641
▁Tan	-10642
▁infer	-10643
itement	-10644
▁Section	-10645
▁bureauc	-10646
untu	-10647
▁Flash	-10648
▁motivated	-10649
▁controller	-10650
oning	-10651
▁Hans	-10652
▁reign	-10653
fortable	-10654
▁Dal	-10655
▁bulk	-10656
▁Griff	-10657
▁Quebec	-10658
▁Ja	-10659
▁resemb	-10660
▁venture	-10661
▁operated	-10662
▁guaranteed	-10663
▁Hop	-10664
▁Yan	-10665
first	-10666
Station	-10667
▁accompanied	-10668
▁Text	-10669
▁sake	-10670
▁bases	-10671
million	-10672
▁engines	-10673
▁militants	-10674
▁particles	-10675
▁releasing	-10676
▁shorter	-10677
▁departure	-10678
▁Ru	-10679
▁subt	-10680
income	-10681
▁stack	-10682
▁Edition	-10683
▁nowhere	-10684
▁recalled	-10685
▁surprisingly	-10686
Of	-10687
▁bone	-10688
▁horr	-10689
izarre	-10690
ricane	-10691
▁forum	-10692
Jo	-10693
▁hub	-10694
▁Fight	-10695
forward	-10696
▁Parker	-10697
▁Marshall	-10698
enh	-10699
▁lean	-10700
▁comed	-10701
▁desktop	-10702
▁Lawrence	-10703
▁dropping	-10704
▁emphasis	-10705
▁automatic	-10706
▁mountains	-10707
▁addressing	-10708
such	-10709
▁TR	-10710
pack	-10711
▁Fun	-10712
▁pink	-10713
▁slot	-10714
mented	-10715
▁enfor	-10716
▁filing	-10717
▁courage	-10718
rup	-10719
▁Yah	-10720
▁expects	-10721
Or	-10722
▁FR	-10723
reek	-10724
▁silent	-10725
▁container	-10726
▁Reds	-10727
▁Along	-10728
DR	-10729
▁BM	-10730
apor	-10731
▁constructed	-10732
▁neighborhoods	-10733
ardo	-10734
▁angle	-10735
▁reass	-10736
▁assemb	-10737
▁caution	-10738
▁compromise	-10739
▁tu	-10740
▁MPs	-10741
▁courses	-10742
▁technological	-10743
too	-10744
▁Imp	-10745
▁polar	-10746
▁Climate	-10747
▁OR	-10748
▁Hum	-10749
immer	-10750
▁Prom	-10751
imir	-10752
▁beta	-10753
▁algorithm	-10754
▁wise	-10755
▁Russell	-10756
▁applies	-10757
▁intimid	-10758
?’	-10759
non	-10760
ois	-10761
▁Nash	-10762
▁wore	-10763
▁antib	-10764
▁golden	-10765
▁ranking	-10766
▁defended	-10767
cat	-10768
oda	-10769
▁fru	-10770
arded	-10771
▁Stock	-10772
▁colleg	-10773
▁praised	-10774
▁Franklin	-10775
▁reactions	-10776
▁bitter	-10777
▁Stewart	-10778
▁renewable	-10779
arios	-10780
▁acted	-10781
▁Knight	-10782
LY	-10783
map	-10784
▁organis	-10785
vation	-10786
▁alliance	-10787
ampa	-10788
▁Corp	-10789
▁Ukrainian	-10790
▁designated	-10791
▁uncertainty	-10792
▁environments	-10793
▁în	-10794
▁furn	-10795
Ass	-10796
inge	-10797
link	-10798
▁seeks	-10799
▁Forest	-10800
▁longest	-10801
▁preventing	-10802
▁probability	-10803
rin	-10804
▁lobb	-10805
▁identical	-10806
▁complained	-10807
▁productive	-10808
▁functionality	-10809
▁cens	-10810
▁Fergus	-10811
itate	-10812
▁Less	-10813
▁reply	-10814
▁Hitler	-10815
▁panels	-10816
▁infection	-10817
dog	-10818
▁CC	-10819
▁Fle	-10820
irates	-10821
▁toile	-10822
▁Against	-10823
GA	-10824
uri	-10825
▁Anti	-10826
▁Storm	-10827
▁insur	-10828
▁decides	-10829
▁ranging	-10830
GO	-10831
▁Word	-10832
UM	-10833
olid	-10834
▁Jacob	-10835
▁handled	-10836
▁departments	-10837
▁dirt	-10838
▁photographer	-10839
ikh	-10840
▁cops	-10841
▁beaten	-10842
▁mixture	-10843
cap	-10844
▁Scar	-10845
mother	-10846
▁Sport	-10847
▁brands	-10848
▁occupation	-10849
aro	-10850
brew	-10851
requ	-10852
▁documented	-10853
▁configuration	-10854
▁Rap	-10855
ocial	-10856
▁yard	-10857
ioxide	-10858
▁ignor	-10859
▁Fisher	-10860
▁assembly	-10861
▁EPA	-10862
▁conclus	-10863
gly	-10864
ilst	-10865
▁Mas	-10866
▁Nig	-10867
▁mouse	-10868
▁backs	-10869
▁grocer	-10870
▁accepting	-10871
▁Merc	-10872
▁Peace	-10873
▁dimin	-10874
▁patri	-10875
▁Arthur	-10876
▁satisfied	-10877
?)	-10878
ere	-10879
▁Ian	-10880
graph	-10881
▁bombs	-10882
▁Alaska	-10883
▁Manning	-10884
▁flights	-10885
▁conviction	-10886
▁Stra	-10887
▁pose	-10888
▁Table	-10889
▁orbit	-10890
▁graphic	-10891
▁lighting	-10892
▁challenged	-10893
▁Hawaii	-10894
▁Native	-10895
▁heaven	-10896
anim	-10897
bery	-10898
▁Airport	-10899
▁Cowboys	-10900
▁spotted	-10901
▁Islands	-10902
▁similarly	-10903
▁sustained	-10904
▁indication	-10905
wind	-10906
▁Winter	-10907
▁verify	-10908
▁circuit	-10909
▁courtesy	-10910
vas	-10911
▁bol	-10912
▁barg	-10913
▁derived	-10914
▁indicating	-10915
citation	-10916
▁fucking	-10917
▁Ju	-10918
▁Fif	-10919
▁intrig	-10920
▁duration	-10921
▁sexually	-10922
▁proportion	-10923
▁planes	-10924
▁hunt	-10925
▁spray	-10926
natural	-10927
▁static	-10928
▁Melbourne	-10929
▁Aw	-10930
western	-10931
▁trains	-10932
▁Benn	-10933
▁bass	-10934
▁beneath	-10935
▁swimming	-10936
▁launching	-10937
atre	-10938
omic	-10939
ques	-10940
▁IBM	-10941
▁fut	-10942
▁gut	-10943
shore	-10944
▁Ward	-10945
usting	-10946
▁Orange	-10947
▁pledge	-10948
▁flowers	-10949
conscious	-10950
▁Mississippi	-10951
▁blamed	-10952
▁stopping	-10953
▁Coalition	-10954
▁Drug	-10955
▁bump	-10956
▁Stanley	-10957
▁nationwide	-10958
▁productivity	-10959
aco	-10960
▁lin	-10961
▁Gene	-10962
▁resist	-10963
▁disappeared	-10964
iary	-10965
▁DVD	-10966
After	-10967
HA	-10968
▁por	-10969
▁Kirk	-10970
terror	-10971
▁Smart	-10972
▁inbox	-10973
▁cleaning	-10974
▁employer	-10975
▁ED	-10976
▁stir	-10977
▁Level	-10978
▁Round	-10979
▁podcast	-10980
▁polling	-10981
▁keyboard	-10982
▁PlayStation	-10983
llers	-10984
onduct	-10985
rators	-10986
bitious	-10987
▁donors	-10988
▁amongst	-10989
▁McDonald	-10990
▁disabled	-10991
▁invested	-10992
▁Conclusion	-10993
▁collecting	-10994
▁poster	-10995
▁volunt	-10996
▁Champions	-10997
▁Hampshire	-10998
▁Subscribe	-10999
▁legislature	-11000
NBC	-11001
▁Rh	-11002
▁Posts	-11003
▁alert	-11004
▁operator	-11005
▁recession	-11006
government	-11007
▁compelling	-11008
▁frustration	-11009
▁Biden	-11010
▁Steam	-11011
▁insist	-11012
▁chronic	-11013
▁traveled	-11014
ching	-11015
▁Heat	-11016
▁Prin	-11017
▁bother	-11018
▁tension	-11019
▁headlines	-11020
sk	-11021
oub	-11022
▁tale	-11023
leading	-11024
▁Patriots	-11025
ulse	-11026
▁gray	-11027
▁ought	-11028
urities	-11029
▁modest	-11030
▁realistic	-11031
orical	-11032
▁Corps	-11033
▁instruments	-11034
Su	-11035
VP	-11036
zi	-11037
▁Ow	-11038
▁gig	-11039
▁hiding	-11040
▁laptop	-11041
▁highway	-11042
▁overnight	-11043
agu	-11044
neg	-11045
▁Cry	-11046
▁Own	-11047
▁Fast	-11048
▁Stream	-11049
▁exploring	-11050
▁boundaries	-11051
▁questioning	-11052
owski	-11053
▁Soon	-11054
▁lone	-11055
▁mamm	-11056
▁assists	-11057
▁elderly	-11058
▁Pinterest	-11059
▁occasions	-11060
▁greenhouse	-11061
▁preparation	-11062
▁significance	-11063
▁arena	-11064
▁destro	-11065
▁resort	-11066
▁rivals	-11067
▁senators	-11068
▁subscribe	-11069
gate	-11070
▁Bah	-11071
▁Gab	-11072
leted	-11073
▁Alberta	-11074
▁boards	-11075
▁styles	-11076
SL	-11077
ockets	-11078
▁desired	-11079
▁celebrated	-11080
▁photographs	-11081
fi	-11082
isode	-11083
▁regret	-11084
▁experiencing	-11085
▁Commer	-11086
▁experimental	-11087
ixel	-11088
▁Tell	-11089
▁suck	-11090
▁rifle	-11091
▁nights	-11092
function	-11093
▁pays	-11094
▁cleared	-11095
▁counties	-11096
▁receives	-11097
▁);	-11098
▁Hub	-11099
kward	-11100
▁Block	-11101
▁labour	-11102
QUESTION	-11103
▁newspapers	-11104
▁respective	-11105
rike	-11106
▁Raid	-11107
▁relie	-11108
▁trips	-11109
▁arrests	-11110
▁indirect	-11111
▁discrimin	-11112
▁qualified	-11113
iors	-11114
▁eleph	-11115
▁Regard	-11116
▁manual	-11117
▁rolled	-11118
▁Ferguson	-11119
▁crossing	-11120
▁detention	-11121
▁Sessions	-11122
offs	-11123
▁Pur	-11124
▁tel	-11125
▁abund	-11126
▁luxury	-11127
▁projected	-11128
▁intelligent	-11129
▁accomplished	-11130
▁IRS	-11131
▁surge	-11132
▁Malays	-11133
▁replacing	-11134
▁teammates	-11135
▁appointment	-11136
di	-11137
seless	-11138
▁analys	-11139
Int	-11140
accept	-11141
▁cease	-11142
▁venue	-11143
▁Hunter	-11144
▁refugee	-11145
▁earthquake	-11146
▁Due	-11147
▁Neil	-11148
▁Rangers	-11149
anguage	-11150
▁chamber	-11151
▁crossed	-11152
▁viewing	-11153
▁Country	-11154
▁Speaker	-11155
▁dancing	-11156
▁longtime	-11157
▁migration	-11158
aucus	-11159
ophob	-11160
▁Hann	-11161
▁Karl	-11162
▁toss	-11163
▁Crown	-11164
beat	-11165
mons	-11166
▁Toy	-11167
▁dil	-11168
▁praise	-11169
▁Russians	-11170
▁competitors	-11171
▁Environmental	-11172
rah	-11173
▁Lot	-11174
▁Madrid	-11175
▁painful	-11176
armed	-11177
▁dioxide	-11178
▁possibilities	-11179
▁divorce	-11180
▁jet	-11181
aments	-11182
▁Cloud	-11183
▁awful	-11184
winning	-11185
▁bubble	-11186
▁torn	-11187
▁wrap	-11188
▁imply	-11189
▁missiles	-11190
▁scrutiny	-11191
▁converted	-11192
▁wound	-11193
▁lens	-11194
▁Brandon	-11195
▁enabled	-11196
▁countless	-11197
▁sophisticated	-11198
▁unfortunately	-11199
▁violated	-11200
▁density	-11201
▁horrible	-11202
▁rice	-11203
▁anonym	-11204
▁Imagine	-11205
▁rewards	-11206
▁favourite	-11207
bus	-11208
▁globe	-11209
▁Similarly	-11210
▁pm	-11211
▁Qual	-11212
▁steal	-11213
▁hosting	-11214
▁Election	-11215
▁annually	-11216
▁investigated	-11217
▁Fant	-11218
▁bottles	-11219
▁equipped	-11220
▁suggestion	-11221
dad	-11222
▁crops	-11223
▁Currently	-11224
▁finishing	-11225
▁privilege	-11226
▁Commissioner	-11227
anyahu	-11228
▁theoret	-11229
▁Arkansas	-11230
▁Organization	-11231
▁contributing	-11232
hill	-11233
▁flew	-11234
▁radar	-11235
▁Kurdish	-11236
▁females	-11237
▁Arts	-11238
▁Give	-11239
▁winners	-11240
▁appearing	-11241
May	-11242
▁reck	-11243
▁toys	-11244
anches	-11245
▁Create	-11246
▁speeds	-11247
▁stomach	-11248
▁accusations	-11249
▁Beh	-11250
ifier	-11251
onies	-11252
▁Dest	-11253
▁Rice	-11254
assion	-11255
▁predec	-11256
▁commentary	-11257
▁directions	-11258
.]	-11259
ormal	-11260
▁coin	-11261
▁sons	-11262
▁Citiz	-11263
▁Motor	-11264
feld	-11265
▁frustrated	-11266
TML	-11267
▁cave	-11268
inally	-11269
izations	-11270
▁Chapter	-11271
▁Players	-11272
▁Christie	-11273
stra	-11274
▁ash	-11275
▁absurd	-11276
▁Progress	-11277
▁animation	-11278
▁Nat	-11279
large	-11280
named	-11281
▁Date	-11282
▁Evans	-11283
▁Lions	-11284
▁Queens	-11285
▁faculty	-11286
▁trapped	-11287
▁interven	-11288
▁documentation	-11289
pert	-11290
shirt	-11291
▁reviewed	-11292
▁Explanation	-11293
oa	-11294
ugby	-11295
keley	-11296
▁coord	-11297
▁Domin	-11298
▁displays	-11299
▁restricted	-11300
▁Lock	-11301
▁Polish	-11302
▁quietly	-11303
▁vacation	-11304
▁Jets	-11305
▁aspir	-11306
▁creator	-11307
open	-11308
▁Laure	-11309
▁Philip	-11310
▁delayed	-11311
▁pressing	-11312
▁expertise	-11313
▁meanwhile	-11314
▁uncomfortable	-11315
oria	-11316
▁Bab	-11317
▁bones	-11318
▁babies	-11319
▁riders	-11320
▁threshold	-11321
▁Benj	-11322
▁Federation	-11323
▁conservation	-11324
▁bip	-11325
▁observations	-11326
coins	-11327
▁wisdom	-11328
▁detained	-11329
▁partially	-11330
▁vegetables	-11331
owder	-11332
▁Danny	-11333
▁rebel	-11334
▁earning	-11335
▁devastating	-11336
▁protections	-11337
▁Christianity	-11338
rot	-11339
▁adj	-11340
▁anth	-11341
▁tends	-11342
▁Legisl	-11343
▁emotion	-11344
▁mechanisms	-11345
▁remembered	-11346
▁corresponding	-11347
SU	-11348
▁Pi	-11349
▁AFP	-11350
▁anch	-11351
profile	-11352
TON	-11353
las	-11354
▁DJ	-11355
News	-11356
code	-11357
erald	-11358
▁Print	-11359
▁Bloomberg	-11360
ori	-11361
▁Rio	-11362
▁corn	-11363
tarian	-11364
▁conced	-11365
▁balanced	-11366
DC	-11367
cu	-11368
enz	-11369
utt	-11370
▁clinic	-11371
▁Cambridge	-11372
▁orientation	-11373
▁spy	-11374
▁mild	-11375
▁bizarre	-11376
▁painted	-11377
▁pension	-11378
▁stunning	-11379
agg	-11380
▁Todd	-11381
incial	-11382
▁crown	-11383
▁availability	-11384
roc	-11385
eries	-11386
▁Whatever	-11387
▁suggestions	-11388
mn	-11389
▁burst	-11390
▁backup	-11391
▁altogether	-11392
Image	-11393
▁Beng	-11394
▁alph	-11395
▁sher	-11396
abling	-11397
▁builds	-11398
▁composition	-11399
oyd	-11400
▁Nixon	-11401
▁curve	-11402
▁Comics	-11403
▁Medicare	-11404
▁Want	-11405
▁volcan	-11406
▁ambitious	-11407
▁municipal	-11408
▁calculated	-11409
ра	-11410
ERE	-11411
ugs	-11412
▁Bos	-11413
▁lun	-11414
▁cats	-11415
▁CB	-11416
ocur	-11417
orig	-11418
▁cous	-11419
▁vibr	-11420
▁secular	-11421
▁Netanyahu	-11422
zes	-11423
▁Ky	-11424
rics	-11425
▁mas	-11426
▁traded	-11427
bin	-11428
mart	-11429
▁Analyze	-11430
▁liberty	-11431
▁Wiz	-11432
▁Fitz	-11433
▁Dom	-11434
▁chap	-11435
rencies	-11436
▁lyrics	-11437
▁parameters	-11438
▁misc	-11439
two	-11440
▁ME	-11441
▁Ry	-11442
▁Naz	-11443
▁controlling	-11444
quer	-11445
bably	-11446
▁essay	-11447
▁Python	-11448
▁Senior	-11449
▁applying	-11450
▁Ga	-11451
▁Hend	-11452
▁Swiss	-11453
▁climb	-11454
▁mandate	-11455
▁contents	-11456
▁prevented	-11457
▁supposedly	-11458
burn	-11459
▁immun	-11460
▁crowds	-11461
▁Manager	-11462
▁pricing	-11463
▁agricultural	-11464
▁Barry	-11465
▁duties	-11466
▁infant	-11467
▁commands	-11468
▁relatives	-11469
▁celebration	-11470
aman	-11471
▁Emb	-11472
▁earl	-11473
▁coins	-11474
▁grave	-11475
alin	-11476
oples	-11477
▁Chen	-11478
▁tune	-11479
second	-11480
ambling	-11481
▁devoted	-11482
▁Sciences	-11483
▁breakfast	-11484
▁Fel	-11485
ilation	-11486
ryption	-11487
▁carrier	-11488
▁reflected	-11489
▁Upon	-11490
▁Asked	-11491
▁rhyth	-11492
▁Beyond	-11493
▁Watson	-11494
▁scenarios	-11495
awks	-11496
arett	-11497
▁whis	-11498
erving	-11499
▁excuse	-11500
▁poorly	-11501
▁deserves	-11502
▁sacrifice	-11503
eps	-11504
onia	-11505
▁priest	-11506
▁shooter	-11507
▁romantic	-11508
▁Political	-11509
▁</	-11510
▁mm	-11511
▁alike	-11512
▁dealt	-11513
▁tanks	-11514
▁hearts	-11515
ortheast	-11516
▁worship	-11517
▁Oliver	-11518
▁advised	-11519
▁harmful	-11520
▁discipline	-11521
ASH	-11522
otion	-11523
▁inference	-11524
▁fascinating	-11525
▁operational	-11526
jan	-11527
▁Try	-11528
writer	-11529
▁Occup	-11530
▁jokes	-11531
zerland	-11532
▁Chrome	-11533
▁respected	-11534
▁makers	-11535
▁awkward	-11536
▁beneficial	-11537
▁Pel	-11538
▁Draft	-11539
arently	-11540
▁affair	-11541
▁ambassador	-11542
▁demonstration	-11543
mid	-11544
sized	-11545
▁void	-11546
▁outer	-11547
▁Express	-11548
▁Perform	-11549
▁cultures	-11550
▁Military	-11551
▁supplement	-11552
ski	-11553
EMENT	-11554
▁greet	-11555
▁Magazine	-11556
▁imperial	-11557
Se	-11558
▁Cu	-11559
▁FOR	-11560
▁kingdom	-11561
▁examined	-11562
▁Eventually	-11563
JP	-11564
encer	-11565
▁Buck	-11566
DB	-11567
tics	-11568
▁tob	-11569
▁Gand	-11570
▁meth	-11571
▁McCon	-11572
▁overd	-11573
▁Around	-11574
▁rivers	-11575
▁Context	-11576
▁fastest	-11577
▁).	-11578
▁Vers	-11579
▁cultiv	-11580
▁tablet	-11581
▁gravity	-11582
▁scratch	-11583
▁permitted	-11584
▁unnecessary	-11585
ateur	-11586
▁peer	-11587
▁Billy	-11588
▁Oscar	-11589
initely	-11590
▁Search	-11591
▁Vladimir	-11592
▁Something	-11593
rane	-11594
▁GPU	-11595
anded	-11596
▁Farm	-11597
ailing	-11598
▁Mormon	-11599
▁neglect	-11600
▁instantly	-11601
▁installation	-11602
Res	-11603
▁SD	-11604
▁Ts	-11605
bean	-11606
comp	-11607
oons	-11608
▁Ele	-11609
piece	-11610
▁notably	-11611
▁reaches	-11612
icut	-11613
▁Shan	-11614
▁fluid	-11615
▁delegates	-11616
▁residence	-11617
▁assumption	-11618
▁delivering	-11619
▁EX	-11620
alid	-11621
▁WATCH	-11622
▁viable	-11623
▁witnessed	-11624
▁aggression	-11625
▁suspension	-11626
peror	-11627
▁neur	-11628
incinn	-11629
▁honestly	-11630
asted	-11631
atile	-11632
▁Books	-11633
▁drops	-11634
aughters	-11635
▁exploit	-11636
на	-11637
bie	-11638
▁Hey	-11639
ucker	-11640
▁Cuba	-11641
▁forb	-11642
▁Princ	-11643
▁pregnancy	-11644
▁FO	-11645
▁une	-11646
▁Pokémon	-11647
kind	-11648
storm	-11649
▁Drive	-11650
▁sends	-11651
▁pending	-11652
▁prosper	-11653
▁advocacy	-11654
▁distribut	-11655
orer	-11656
▁haz	-11657
athon	-11658
itory	-11659
▁Natural	-11660
▁placing	-11661
incinnati	-11662
но	-11663
▁tar	-11664
elled	-11665
▁Prot	-11666
▁recy	-11667
▁bonds	-11668
▁zones	-11669
ims	-11670
▁Sem	-11671
chron	-11672
▁Bund	-11673
itivity	-11674
▁agrees	-11675
▁commod	-11676
▁wireless	-11677
UD	-11678
cup	-11679
atisf	-11680
ernel	-11681
▁impose	-11682
▁cricket	-11683
▁nur	-11684
uming	-11685
▁Besides	-11686
▁distant	-11687
▁Switzerland	-11688
aukee	-11689
▁ears	-11690
▁Chron	-11691
▁Dougl	-11692
▁Compare	-11693
▁endless	-11694
▁compound	-11695
▁motivation	-11696
▁EC	-11697
guard	-11698
pling	-11699
▁Investig	-11700
▁revenues	-11701
▁conversion	-11702
AB	-11703
arians	-11704
inging	-11705
▁harvest	-11706
▁Nevertheless	-11707
▁sword	-11708
founder	-11709
PI	-11710
Com	-11711
isive	-11712
▁wings	-11713
▁weaken	-11714
▁Congressional	-11715
arer	-11716
wall	-11717
▁hacking	-11718
▁stressed	-11719
▁Fa	-11720
▁fest	-11721
▁Lynch	-11722
▁Usage	-11723
▁Almost	-11724
▁revealing	-11725
▁highlighted	-11726
▁newsletters	-11727
▁fict	-11728
acular	-11729
▁Chall	-11730
▁sizes	-11731
▁spreading	-11732
▁ft	-11733
▁Cell	-11734
▁Lisa	-11735
▁stun	-11736
▁catast	-11737
▁frozen	-11738
▁monetary	-11739
▁Ta	-11740
fits	-11741
▁reun	-11742
▁Tampa	-11743
▁difficulties	-11744
ulpt	-11745
▁Johnny	-11746
▁complain	-11747
iah	-11748
lie	-11749
▁Cass	-11750
▁Treat	-11751
claimed	-11752
▁teenager	-11753
cha	-11754
▁Fro	-11755
▁cam	-11756
▁Kerry	-11757
▁resigned	-11758
▁addiction	-11759
appropriate	-11760
}}	-11761
written	-11762
▁circles	-11763
▁mechanics	-11764
UC	-11765
▁Bou	-11766
▁Fat	-11767
▁till	-11768
▁Raven	-11769
▁grows	-11770
▁worlds	-11771
▁capability	-11772
▁ineff	-11773
▁coordinator	-11774
▁nurs	-11775
▁breathing	-11776
▁exchanges	-11777
▁acquisition	-11778
char	-11779
▁reserve	-11780
▁adaptation	-11781
▁Aqu	-11782
▁shake	-11783
▁seventh	-11784
ologically	-11785
pin	-11786
abul	-11787
▁Nar	-11788
▁lip	-11789
▁los	-11790
leton	-11791
▁nick	-11792
▁athlete	-11793
▁FCC	-11794
ipher	-11795
▁Inside	-11796
gregation	-11797
▁supporter	-11798
▁conducting	-11799
▁Kickstarter	-11800
▁consequence	-11801
NS	-11802
ATED	-11803
comed	-11804
▁Side	-11805
▁abort	-11806
▁Hispan	-11807
▁debates	-11808
▁mechanical	-11809
▁limitations	-11810
▁confirmation	-11811
lynn	-11812
avery	-11813
urches	-11814
waukee	-11815
▁Hamas	-11816
▁Cincinnati	-11817
err	-11818
uke	-11819
▁Jen	-11820
ighed	-11821
▁steam	-11822
▁Campaign	-11823
▁tourists	-11824
▁computing	-11825
▁tub	-11826
▁conj	-11827
▁scary	-11828
▁Chance	-11829
▁incons	-11830
▁pedest	-11831
▁audiences	-11832
▁attributed	-11833
▁territories	-11834
bet	-11835
econom	-11836
gments	-11837
▁Singh	-11838
▁resur	-11839
▁Theatre	-11840
▁Universe	-11841
▁flexible	-11842
▁flexibility	-11843
ILL	-11844
sky	-11845
▁Keith	-11846
▁Speed	-11847
▁Norway	-11848
▁treating	-11849
▁libraries	-11850
▁RT	-11851
udeau	-11852
▁NCAA	-11853
▁heritage	-11854
▁operators	-11855
SM	-11856
cules	-11857
▁attendance	-11858
▁abol	-11859
ousing	-11860
▁Fried	-11861
▁Option	-11862
zb	-11863
▁Huff	-11864
▁Reading	-11865
▁startup	-11866
▁earnings	-11867
▁historically	-11868
▁Roc	-11869
▁toug	-11870
▁pione	-11871
lr	-11872
▁grain	-11873
▁tempt	-11874
verning	-11875
▁Mobile	-11876
Co	-11877
Rep	-11878
▁fare	-11879
▁Tyler	-11880
▁tendency	-11881
▁NO	-11882
▁SM	-11883
▁UI	-11884
▁Kas	-11885
▁rib	-11886
▁treaty	-11887
ifferent	-11888
criptions	-11889
▁variation	-11890
▁approaching	-11891
bage	-11892
specific	-11893
▁filling	-11894
▁secured	-11895
▁Berkeley	-11896
dict	-11897
ects	-11898
stan	-11899
user	-11900
▁Sep	-11901
▁unl	-11902
▁bugs	-11903
olphins	-11904
▁suppose	-11905
unct	-11906
count	-11907
story	-11908
▁safer	-11909
▁animated	-11910
▁Obviously	-11911
igers	-11912
▁marginal	-11913
▁participated	-11914
uably	-11915
▁Gray	-11916
▁cruel	-11917
▁grants	-11918
▁patrol	-11919
▁editors	-11920
aux	-11921
...”	-11922
▁epid	-11923
▁Terry	-11924
▁formally	-11925
kes	-11926
▁Blu	-11927
▁Works	-11928
▁Living	-11929
▁clever	-11930
▁drones	-11931
▁tragic	-11932
▁Morning	-11933
▁touched	-11934
▁instinct	-11935
olo	-11936
sur	-11937
While	-11938
▁Forces	-11939
▁Il	-11940
▁Kate	-11941
▁jazz	-11942
MAN	-11943
ulu	-11944
▁Bird	-11945
▁Mort	-11946
▁pupp	-11947
▁sweat	-11948
▁width	-11949
▁survivors	-11950
ivan	-11951
▁Kyle	-11952
▁damn	-11953
▁pizza	-11954
▁habits	-11955
▁qualify	-11956
▁succeeded	-11957
aton	-11958
flow	-11959
▁Nin	-11960
▁Sac	-11961
▁powered	-11962
▁operates	-11963
▁classical	-11964
▁conclusions	-11965
▁Hait	-11966
▁Commons	-11967
▁Connecticut	-11968
”)	-11969
▁hill	-11970
▁toll	-11971
▁kills	-11972
▁vague	-11973
ortunate	-11974
▁reserves	-11975
▁socialist	-11976
py	-11977
▁BR	-11978
acer	-11979
fold	-11980
▁HTML	-11981
▁naked	-11982
▁ritual	-11983
▁Buffalo	-11984
▁Benjamin	-11985
▁identifying	-11986
.),	-11987
▁BE	-11988
▁Solar	-11989
▁rotation	-11990
---	-11991
shot	-11992
▁ethics	-11993
▁Mason	-11994
▁overl	-11995
▁Deputy	-11996
▁dispos	-11997
▁judicial	-11998
▁breakdown	-11999
▁illegally	-12000
▁excitement	-12001
▁observation	-12002
pop	-12003
▁Mom	-12004
▁Half	-12005
outing	-12006
▁Anyone	-12007
▁citizenship	-12008
ни	-12009
dale	-12010
▁Abbott	-12011
▁dispar	-12012
▁initiatives	-12013
acies	-12014
▁demo	-12015
▁Serge	-12016
▁outdoor	-12017
Ad	-12018
IST	-12019
cre	-12020
opt	-12021
▁Tob	-12022
▁Anne	-12023
▁Fish	-12024
perial	-12025
▁cheer	-12026
▁circul	-12027
▁mutual	-12028
IE	-12029
iasm	-12030
▁Prize	-12031
▁breach	-12032
▁stocks	-12033
▁suprem	-12034
▁whites	-12035
▁processor	-12036
▁Pod	-12037
▁Mario	-12038
▁Safety	-12039
▁serial	-12040
▁earliest	-12041
▁spacecraft	-12042
km	-12043
▁unde	-12044
umbled	-12045
▁royal	-12046
▁gaining	-12047
▁preview	-12048
▁Partners	-12049
▁structural	-12050
tech	-12051
▁panic	-12052
▁rehab	-12053
▁Carson	-12054
▁Software	-12055
KE	-12056
days	-12057
ridge	-12058
▁Alice	-12059
▁Arena	-12060
▁Trudeau	-12061
TR	-12062
charg	-12063
vious	-12064
▁peers	-12065
▁Century	-12066
▁ceiling	-12067
▁Milwaukee	-12068
▁decreased	-12069
▁excessive	-12070
oni	-12071
arma	-12072
best	-12073
▁Tea	-12074
asting	-12075
▁buyers	-12076
▁Belgium	-12077
▁inhabit	-12078
▁EV	-12079
thal	-12080
minded	-12081
▁Dakota	-12082
▁albums	-12083
ART	-12084
▁leaf	-12085
▁fuels	-12086
▁marine	-12087
▁waited	-12088
arenthood	-12089
azy	-12090
▁Cut	-12091
▁strongest	-12092
mi	-12093
▁tunnel	-12094
▁acceptance	-12095
▁Conservatives	-12096
lib	-12097
▁Guy	-12098
roller	-12099
▁Stein	-12100
▁knocked	-12101
▁firearms	-12102
▁Advertisements	-12103
▁Fem	-12104
borne	-12105
iatric	-12106
▁continent	-12107
▁defenders	-12108
▁pig	-12109
▁lanes	-12110
▁fright	-12111
▁assured	-12112
▁shocking	-12113
▁McConnell	-12114
▁Gon	-12115
▁ugly	-12116
▁Hindu	-12117
▁demol	-12118
▁fence	-12119
▁Oxford	-12120
▁throws	-12121
▁Members	-12122
▁tobacco	-12123
▁calendar	-12124
▁aftermath	-12125
▁achievement	-12126
▁anticipated	-12127
▁imagination	-12128
ocus	-12129
▁Sex	-12130
formed	-12131
▁Notes	-12132
▁Profile	-12133
▁republic	-12134
▁purchasing	-12135
▁Rail	-12136
▁Glass	-12137
▁Eagles	-12138
▁empire	-12139
olitical	-12140
▁Circuit	-12141
▁intensity	-12142
orses	-12143
celona	-12144
▁humor	-12145
▁trash	-12146
▁Walter	-12147
▁retrie	-12148
▁Vermont	-12149
▁transmission	-12150
Book	-12151
gary	-12152
▁incomp	-12153
▁stabil	-12154
▁subsidies	-12155
df	-12156
nor	-12157
▁vel	-12158
▁dece	-12159
▁Murphy	-12160
▁worthy	-12161
▁Neither	-12162
▁recount	-12163
?'	-12164
iop	-12165
ocate	-12166
boards	-12167
▁Harvey	-12168
▁deciding	-12169
▁fraction	-12170
▁в	-12171
orph	-12172
rape	-12173
idays	-12174
ierre	-12175
▁Chap	-12176
estone	-12177
handed	-12178
▁reconst	-12179
▁à	-12180
▁BL	-12181
▁Cos	-12182
▁dign	-12183
▁sparked	-12184
▁welcomed	-12185
▁expressing	-12186
▁optimistic	-12187
quality	-12188
ructions	-12189
▁floating	-12190
▁fet	-12191
liminary	-12192
▁printing	-12193
dig	-12194
onda	-12195
size	-12196
▁Ess	-12197
▁Jennifer	-12198
▁announcing	-12199
▁с	-12200
gov	-12201
▁AB	-12202
▁viral	-12203
▁Clarke	-12204
▁secrets	-12205
▁wrapped	-12206
▁pursuing	-12207
▁manufacturer	-12208
En	-12209
arest	-12210
▁expend	-12211
▁insane	-12212
▁prayer	-12213
▁Madison	-12214
▁Alf	-12215
▁unh	-12216
keeper	-12217
▁Yahoo	-12218
because	-12219
▁reminder	-12220
▁hopeful	-12221
▁planets	-12222
▁boyfriend	-12223
▁respondents	-12224
▁deliberately	-12225
▁Dri	-12226
orate	-12227
▁Thor	-12228
▁Prior	-12229
▁Newton	-12230
▁essence	-12231
▁McM	-12232
▁org	-12233
imens	-12234
insula	-12235
▁Krist	-12236
▁exped	-12237
▁emerge	-12238
▁Studios	-12239
▁detected	-12240
uz	-12241
IGH	-12242
rek	-12243
▁Lev	-12244
▁lib	-12245
acent	-12246
▁trop	-12247
▁lasted	-12248
▁interrupt	-12249
Pl	-12250
▁TD	-12251
▁Hem	-12252
▁posed	-12253
▁buttons	-12254
▁Bryant	-12255
▁Liberty	-12256
▁shifted	-12257
▁cryptocur	-12258
▁offseason	-12259
▁^	-12260
▁grip	-12261
▁Cohen	-12262
▁Better	-12263
▁oversight	-12264
▁References	-12265
▁enterprise	-12266
▁intentions	-12267
▁technically	-12268
abil	-12269
stock	-12270
itably	-12271
▁Rosen	-12272
▁Spider	-12273
ernandez	-12274
ationally	-12275
▁suspicious	-12276
▁DR	-12277
▁Anim	-12278
▁slam	-12279
▁lasting	-12280
▁designers	-12281
five	-12282
▁cub	-12283
▁Meet	-12284
orient	-12285
otypes	-12286
▁Garden	-12287
▁preval	-12288
▁magical	-12289
ICE	-12290
▁Ath	-12291
▁Pap	-12292
▁UPD	-12293
▁aest	-12294
arents	-12295
▁filming	-12296
▁sisters	-12297
▁compliance	-12298
▁disclosure	-12299
afi	-12300
▁diff	-12301
▁Phone	-12302
Sc	-12303
▁Amy	-12304
▁Len	-12305
▁beloved	-12306
▁legendary	-12307
erto	-12308
▁Dod	-12309
▁admits	-12310
▁pilots	-12311
half	-12312
▁MMA	-12313
▁Browns	-12314
▁Douglas	-12315
▁adapted	-12316
▁resolved	-12317
▁friendship	-12318
irs	-12319
sign	-12320
somet	-12321
▁Gates	-12322
▁Resear	-12323
▁cocaine	-12324
▁editing	-12325
▁hackers	-12326
▁reminded	-12327
▁societies	-12328
▁understands	-12329
Mus	-12330
▁Friends	-12331
▁pressed	-12332
▁investing	-12333
▁presumably	-12334
iva	-12335
issa	-12336
ATION	-12337
▁realm	-12338
▁funeral	-12339
acceptable	-12340
▁delicious	-12341
▁traditions	-12342
▁identification	-12343
▁Need	-12344
▁Peters	-12345
▁MB	-12346
▁Chuck	-12347
▁Holland	-12348
▁pledged	-12349
▁warnings	-12350
▁incentives	-12351
▁minorities	-12352
when	-12353
▁Nep	-12354
▁Stars	-12355
▁frank	-12356
▁volunteer	-12357
cca	-12358
valid	-12359
charge	-12360
giving	-12361
▁labels	-12362
▁rushed	-12363
▁triple	-12364
essional	-12365
▁Communist	-12366
▁Jefferson	-12367
▁Amb	-12368
▁pants	-12369
▁avoided	-12370
▁immense	-12371
▁vaccine	-12372
▁musicians	-12373
DAY	-12374
▁folk	-12375
▁fract	-12376
▁trucks	-12377
▁refusing	-12378
▁Charlotte	-12379
▁disturbing	-12380
vals	-12381
start	-12382
▁token	-12383
▁jacket	-12384
▁approve	-12385
▁founding	-12386
rc	-12387
Type	-12388
beit	-12389
▁Money	-12390
▁brows	-12391
▁lifted	-12392
ountered	-12393
▁belongs	-12394
▁barriers	-12395
▁encountered	-12396
▁transformed	-12397
▁traditionally	-12398
▁ISBN	-12399
▁Leaf	-12400
backed	-12401
▁crying	-12402
▁arguably	-12403
▁Throughout	-12404
▁Blog	-12405
▁stats	-12406
▁Raiders	-12407
▁interrog	-12408
▁Barcelona	-12409
▁batteries	-12410
▁triggered	-12411
ults	-12412
▁Pred	-12413
▁declare	-12414
▁fitness	-12415
▁mandatory	-12416
▁completion	-12417
▁Lane	-12418
istani	-12419
▁Harrison	-12420
▁declaration	-12421
▁==	-12422
atter	-12423
▁Spect	-12424
▁Urban	-12425
▁colleague	-12426
▁organisms	-12427
▁indigenous	-12428
▁arrangement	-12429
▁Communications	-12430
ahn	-12431
arettes	-12432
▁sensor	-12433
▁grabbed	-12434
▁whistle	-12435
owell	-12436
▁aired	-12437
▁garage	-12438
▁Verizon	-12439
▁portfol	-12440
▁thereby	-12441
controlled	-12442
▁advantages	-12443
▁organizing	-12444
▁alternatives	-12445
▁MA	-12446
▁Si	-12447
alog	-12448
mare	-12449
▁Cand	-12450
▁Lebanon	-12451
▁nan	-12452
speed	-12453
▁divid	-12454
▁Orthodox	-12455
▁doctrine	-12456
obb	-12457
▁Must	-12458
aghdad	-12459
▁dishes	-12460
ilateral	-12461
▁motorcy	-12462
adi	-12463
▁FDA	-12464
▁Brus	-12465
success	-12466
▁detain	-12467
▁observe	-12468
▁trusted	-12469
TO	-12470
wid	-12471
value	-12472
abetes	-12473
▁steep	-12474
▁Employ	-12475
angelical	-12476
▁wildlife	-12477
ND	-12478
resa	-12479
▁Seven	-12480
▁novels	-12481
▁Barbara	-12482
▁cartoon	-12483
▁calories	-12484
▁classroom	-12485
▁responding	-12486
▁unity	-12487
▁affecting	-12488
▁ol	-12489
▁jack	-12490
▁shore	-12491
▁liberals	-12492
▁constrain	-12493
also	-12494
▁airline	-12495
▁embedded	-12496
▁wrestling	-12497
";	-12498
▁buses	-12499
▁genet	-12500
utenant	-12501
▁traits	-12502
▁glasses	-12503
▁damaging	-12504
▁Photograph	-12505
▁unfortunate	-12506
▁ampl	-12507
▁prey	-12508
▁Agree	-12509
ructive	-12510
▁auction	-12511
▁colleges	-12512
otton	-12513
▁recept	-12514
▁drafted	-12515
▁mothers	-12516
hu	-12517
▁Palace	-12518
▁masses	-12519
▁wishes	-12520
▁feminist	-12521
ango	-12522
oard	-12523
velt	-12524
▁nit	-12525
ipper	-12526
nered	-12527
▁Arctic	-12528
▁rumors	-12529
▁wooden	-12530
▁creativity	-12531
ACK	-12532
lem	-12533
igma	-12534
▁Alt	-12535
▁wolf	-12536
▁bless	-12537
▁slave	-12538
▁hostile	-12539
▁attitudes	-12540
▁directors	-12541
▁Pun	-12542
▁buzz	-12543
▁crude	-12544
▁Explain	-12545
▁climbing	-12546
▁specified	-12547
("	-12548
▁Jake	-12549
▁Reed	-12550
▁caps	-12551
ussion	-12552
▁acquire	-12553
▁adequate	-12554
▁infected	-12555
▁Venezuela	-12556
▁credibility	-12557
▁satisfaction	-12558
▁MM	-12559
anka	-12560
▁lau	-12561
▁horm	-12562
▁Brand	-12563
▁moder	-12564
▁Merkel	-12565
▁sequel	-12566
▁pursuit	-12567
asm	-12568
▁Ped	-12569
▁unders	-12570
▁Memorial	-12571
▁advances	-12572
▁daughters	-12573
▁penalties	-12574
▁Tun	-12575
▁Koch	-12576
▁bust	-12577
▁Ebola	-12578
▁Roose	-12579
▁forests	-12580
▁laughing	-12581
▁definitive	-12582
▁transformation	-12583
CD	-12584
seud	-12585
▁awa	-12586
wealth	-12587
▁sheriff	-12588
▁slower	-12589
▁renewed	-12590
▁contacts	-12591
▁evaluate	-12592
▁tensions	-12593
▁Rubio	-12594
▁Confed	-12595
▁brains	-12596
▁suspicion	-12597
.:	-12598
heric	-12599
▁Firef	-12600
▁Turner	-12601
▁temporarily	-12602
iking	-12603
▁texts	-12604
▁donation	-12605
▁Indonesia	-12606
▁connecting	-12607
FS	-12608
TIS	-12609
abel	-12610
▁Doug	-12611
▁query	-12612
▁Contact	-12613
▁villages	-12614
▁collapsed	-12615
▁nominated	-12616
▁shoulders	-12617
▁sponsored	-12618
▁thoroughly	-12619
Col	-12620
hal	-12621
pot	-12622
rait	-12623
▁coat	-12624
iosity	-12625
▁Break	-12626
▁ethical	-12627
▁passionate	-12628
▁ideological	-12629
var	-12630
▁NA	-12631
anti	-12632
▁Gear	-12633
owners	-12634
▁reson	-12635
▁afterwards	-12636
▁Maine	-12637
▁outfit	-12638
▁nonprofit	-12639
▁Wiki	-12640
▁gifts	-12641
▁meals	-12642
▁slavery	-12643
▁Original	-12644
▁grateful	-12645
▁prototype	-12646
▁continuous	-12647
▁withdrawal	-12648
▁AMD	-12649
▁gard	-12650
▁draws	-12651
▁Introdu	-12652
▁careers	-12653
▁farming	-12654
▁prohibited	-12655
▁treatments	-12656
′′	-12657
wal	-12658
View	-12659
ieval	-12660
▁flip	-12661
▁urge	-12662
▁condemn	-12663
forcement	-12664
▁Universal	-12665
▁considers	-12666
▁maintains	-12667
illo	-12668
▁raid	-12669
▁marry	-12670
▁Broncos	-12671
▁consumed	-12672
▁believing	-12673
▁governing	-12674
ella	-12675
▁Mitt	-12676
idding	-12677
▁Study	-12678
▁lineback	-12679
▁diagnosed	-12680
▁explosive	-12681
▁humanitarian	-12682
fs	-12683
pur	-12684
▁Ide	-12685
▁muscles	-12686
eu	-12687
aws	-12688
▁Hud	-12689
actor	-12690
▁boring	-12691
▁assuming	-12692
▁invented	-12693
▁tutorial	-12694
▁unveiled	-12695
fil	-12696
ellar	-12697
utical	-12698
▁casting	-12699
▁undermine	-12700
▁Gay	-12701
▁Flynn	-12702
▁Wonder	-12703
▁Mission	-12704
▁condemned	-12705
Fig	-12706
uum	-12707
▁brave	-12708
▁orche	-12709
▁consume	-12710
▁donated	-12711
▁enhanced	-12712
▁likelihood	-12713
Any	-12714
▁Dublin	-12715
▁Making	-12716
▁comply	-12717
▁sculpt	-12718
▁proceedings	-12719
▁cents	-12720
▁smugg	-12721
▁plates	-12722
▁Episode	-12723
▁Getting	-12724
▁examination	-12725
▁transparent	-12726
▁accidentally	-12727
▁characterized	-12728
▁Nav	-12729
▁Ubuntu	-12730
▁Students	-12731
▁calculate	-12732
▁encryption	-12733
▁McL	-12734
▁Luck	-12735
▁silly	-12736
▁Object	-12737
▁preference	-12738
▁priorities	-12739
▁LED	-12740
▁Neg	-12741
▁bell	-12742
▁counted	-12743
▁financing	-12744
ji	-12745
ania	-12746
enna	-12747
haul	-12748
▁Maj	-12749
▁contam	-12750
▁equity	-12751
▁filmed	-12752
▁freely	-12753
▁Bradley	-12754
▁Working	-12755
▁appeals	-12756
▁IC	-12757
have	-12758
▁Planned	-12759
▁Argentina	-12760
▁Roosevelt	-12761
▁implementing	-12762
▁Posted	-12763
▁Indians	-12764
▁execute	-12765
▁testified	-12766
Name	-12767
data	-12768
suits	-12769
▁Greens	-12770
▁betray	-12771
▁inmates	-12772
▁provincial	-12773
never	-12774
▁feared	-12775
byn	-12776
uto	-12777
▁fame	-12778
▁shed	-12779
▁dispro	-12780
▁isolation	-12781
▁commissioner	-12782
main	-12783
▁dose	-12784
▁slic	-12785
izable	-12786
▁Grace	-12787
▁generous	-12788
▁attributes	-12789
▁corporation	-12790
aha	-12791
hew	-12792
▁dense	-12793
prising	-12794
▁strain	-12795
▁taxpayer	-12796
▁determination	-12797
inos	-12798
opes	-12799
▁von	-12800
▁squee	-12801
▁skilled	-12802
▁clicking	-12803
▁eliminated	-12804
amps	-12805
cker	-12806
▁aging	-12807
▁scrap	-12808
▁bedroom	-12809
aceutical	-12810
▁branches	-12811
▁vertical	-12812
ро	-12813
think	-12814
▁Room	-12815
▁incl	-12816
▁Quest	-12817
▁Veter	-12818
▁laser	-12819
▁flower	-12820
▁arriving	-12821
▁***	-12822
▁jew	-12823
press	-12824
▁Output	-12825
▁Germans	-12826
▁forming	-12827
▁retreat	-12828
▁comparing	-12829
addy	-12830
gian	-12831
▁chains	-12832
▁bicycle	-12833
whe	-12834
▁__	-12835
▁Kam	-12836
▁mall	-12837
▁straw	-12838
▁innings	-12839
urred	-12840
▁beers	-12841
▁hence	-12842
▁rubber	-12843
▁pleaded	-12844
▁occurring	-12845
▁statistical	-12846
▁Fab	-12847
▁ate	-12848
▁Shel	-12849
▁Stop	-12850
▁summar	-12851
▁helicopter	-12852
▁Hi	-12853
▁CBC	-12854
▁Wol	-12855
▁Finance	-12856
▁Thunder	-12857
fig	-12858
▁wash	-12859
▁grace	-12860
▁skate	-12861
▁feeding	-12862
▁literary	-12863
▁Ltd	-12864
▁Guide	-12865
▁inhib	-12866
display	-12867
▁Holmes	-12868
▁quotes	-12869
▁regulators	-12870
▁organisations	-12871
ión	-12872
airy	-12873
erer	-12874
orns	-12875
▁Sox	-12876
stage	-12877
▁Marl	-12878
▁bund	-12879
▁rall	-12880
▁wreck	-12881
▁denial	-12882
▁arrives	-12883
▁escaped	-12884
▁exceptional	-12885
hou	-12886
drop	-12887
reach	-12888
▁medal	-12889
▁Applic	-12890
▁Carlos	-12891
▁Rogers	-12892
Net	-12893
▁VP	-12894
note	-12895
rior	-12896
rose	-12897
tail	-12898
▁Fame	-12899
▁tong	-12900
▁Coach	-12901
▁codes	-12902
ulative	-12903
▁Saints	-12904
▁infring	-12905
▁manages	-12906
▁accountable	-12907
▁distinction	-12908
Sem	-12909
olar	-12910
▁prox	-12911
master	-12912
▁Brussels	-12913
▁insights	-12914
isers	-12915
▁Salt	-12916
ickets	-12917
isible	-12918
▁parade	-12919
▁timeline	-12920
▁Parenthood	-12921
/.	-12922
itis	-12923
▁hed	-12924
▁Corn	-12925
▁mock	-12926
▁Swift	-12927
▁Temple	-12928
▁resume	-12929
▁Content	-12930
▁cycling	-12931
▁doubled	-12932
omer	-12933
mouth	-12934
▁Years	-12935
▁Travel	-12936
▁spends	-12937
▁barrier	-12938
▁Brazilian	-12939
▁exercises	-12940
▁purchases	-12941
ignt	-12942
names	-12943
▁disg	-12944
▁glob	-12945
VERTIS	-12946
▁Qaeda	-12947
▁Truth	-12948
▁winds	-12949
▁thirty	-12950
▁unfold	-12951
▁recruiting	-12952
▁introducing	-12953
▁juice	-12954
▁vegan	-12955
powered	-12956
▁fisher	-12957
▁effectiveness	-12958
▁Arn	-12959
▁paths	-12960
ifiable	-12961
▁Altern	-12962
▁origins	-12963
▁avoiding	-12964
▁licensing	-12965
▁Scientists	-12966
etta	-12967
ools	-12968
▁Jar	-12969
▁Brun	-12970
▁riot	-12971
▁worn	-12972
▁dubbed	-12973
▁edited	-12974
▁helmet	-12975
▁crashed	-12976
▁triumph	-12977
▁predomin	-12978
▁elaborate	-12979
▁willingness	-12980
four	-12981
around	-12982
▁Incre	-12983
▁Marco	-12984
▁bikes	-12985
▁purely	-12986
▁lengthy	-12987
▁churches	-12988
▁interference	-12989
▁Unit	-12990
▁fictional	-12991
▁evaluation	-12992
gt	-12993
▁lap	-12994
▁rect	-12995
▁hybrid	-12996
▁reception	-12997
▁destroying	-12998
Am	-12999
John	-13000
affe	-13001
▁liver	-13002
edi	-13003
▁Bh	-13004
fight	-13005
▁Ring	-13006
▁Castle	-13007
▁Puerto	-13008
▁metres	-13009
▁tennis	-13010
▁Movement	-13011
▁Regional	-13012
▁magnitude	-13013
▁psychology	-13014
▁и	-13015
▁Legal	-13016
▁chase	-13017
▁suits	-13018
▁hatred	-13019
▁workforce	-13020
▁midfielder	-13021
▁NEW	-13022
asses	-13023
▁Rams	-13024
▁Close	-13025
▁Woman	-13026
▁Bernard	-13027
▁grocery	-13028
▁template	-13029
▁disappointing	-13030
▁disappointment	-13031
▁Ot	-13032
alph	-13033
▁Inv	-13034
▁Init	-13035
▁Advent	-13036
▁Joined	-13037
▁shifts	-13038
card	-13039
UTERS	-13040
actic	-13041
visor	-13042
▁oven	-13043
issance	-13044
▁relate	-13045
▁URL	-13046
▁Cant	-13047
▁READ	-13048
▁hood	-13049
school	-13050
▁sells	-13051
compass	-13052
▁Arabic	-13053
▁Wallace	-13054
▁magnetic	-13055
▁reflection	-13056
▁Researchers	-13057
arts	-13058
ibbean	-13059
pelled	-13060
▁prest	-13061
▁Dennis	-13062
▁anarch	-13063
▁invite	-13064
▁cooling	-13065
▁warfare	-13066
▁failures	-13067
▁teenagers	-13068
gs	-13069
▁é	-13070
gel	-13071
▁WR	-13072
▁Gas	-13073
pered	-13074
▁fork	-13075
▁tang	-13076
▁Bobby	-13077
▁anime	-13078
▁farms	-13079
▁swift	-13080
version	-13081
▁Corbyn	-13082
▁adverse	-13083
▁strings	-13084
то	-13085
lash	-13086
neath	-13087
ollah	-13088
▁Virt	-13089
▁plaus	-13090
▁habitat	-13091
▁permits	-13092
▁screaming	-13093
▁establishing	-13094
▁Stay	-13095
▁hier	-13096
▁finan	-13097
▁differ	-13098
▁closure	-13099
▁enthusiasm	-13100
larg	-13101
▁Magn	-13102
▁trap	-13103
▁Index	-13104
▁Jesse	-13105
▁Pence	-13106
▁landl	-13107
▁penet	-13108
▁teens	-13109
▁divers	-13110
▁unrest	-13111
▁ADVERTIS	-13112
▁superhero	-13113
▁parliamentary	-13114
uez	-13115
▁HP	-13116
Russ	-13117
▁bite	-13118
▁Hockey	-13119
▁Shadow	-13120
▁indict	-13121
▁champions	-13122
▁autonomous	-13123
FI	-13124
▁ty	-13125
▁rated	-13126
▁Additional	-13127
rowth	-13128
▁intu	-13129
ooting	-13130
▁armor	-13131
▁ordin	-13132
▁dining	-13133
▁sooner	-13134
▁Complete	-13135
▁endorsed	-13136
▁authorized	-13137
▁Thai	-13138
▁Ghost	-13139
▁honey	-13140
▁offset	-13141
▁united	-13142
▁terminal	-13143
▁divisions	-13144
▁retailers	-13145
▁generating	-13146
▁specialist	-13147
▁Vi	-13148
ello	-13149
▁Too	-13150
▁Bash	-13151
▁cups	-13152
▁Target	-13153
▁clouds	-13154
▁subway	-13155
▁predictions	-13156
▁QB	-13157
▁Juan	-13158
itated	-13159
▁trace	-13160
▁absent	-13161
▁Problem	-13162
▁immigrant	-13163
▁routinely	-13164
▁workplace	-13165
big	-13166
irk	-13167
olk	-13168
bris	-13169
▁WWE	-13170
▁Load	-13171
▁sued	-13172
holder	-13173
▁Method	-13174
▁Spirit	-13175
▁Edwards	-13176
▁memorial	-13177
▁portrayed	-13178
▁Pin	-13179
▁Rah	-13180
semble	-13181
▁Marcus	-13182
▁fierce	-13183
▁counting	-13184
▁meantime	-13185
▁astronaut	-13186
▁physician	-13187
▁laboratory	-13188
east	-13189
pace	-13190
▁Wii	-13191
▁cher	-13192
▁null	-13193
▁shaped	-13194
▁temple	-13195
▁teenage	-13196
▁creators	-13197
▁threaten	-13198
▁governance	-13199
▁cra	-13200
ugged	-13201
ugging	-13202
▁urging	-13203
▁Finnish	-13204
▁wondered	-13205
▁supportive	-13206
lli	-13207
bart	-13208
▁Titan	-13209
▁wheels	-13210
▁Denmark	-13211
▁garbage	-13212
▁peoples	-13213
▁licensed	-13214
▁Oz	-13215
eded	-13216
▁Auto	-13217
▁sink	-13218
health	-13219
▁Either	-13220
▁streak	-13221
▁headline	-13222
▁navigate	-13223
▁appealing	-13224
▁variations	-13225
▁counterparts	-13226
ols	-13227
tor	-13228
▁iT	-13229
rien	-13230
media	-13231
▁Record	-13232
▁Spencer	-13233
▁coastal	-13234
▁commented	-13235
▁comparable	-13236
▁Teh	-13237
▁Colomb	-13238
▁Rachel	-13239
▁millenn	-13240
▁Representatives	-13241
gree	-13242
▁jam	-13243
ignty	-13244
▁Celt	-13245
▁dumb	-13246
▁grat	-13247
▁Bryan	-13248
▁loving	-13249
▁completing	-13250
OST	-13251
anth	-13252
▁Edge	-13253
amation	-13254
▁wallet	-13255
▁Baghdad	-13256
▁Michelle	-13257
▁Pakistani	-13258
ete	-13259
▁CM	-13260
▁GB	-13261
▁Gam	-13262
▁dys	-13263
▁Rank	-13264
usters	-13265
▁specify	-13266
▁economies	-13267
================	-13268
Te	-13269
ARD	-13270
▁encl	-13271
driven	-13272
▁grasp	-13273
▁admission	-13274
▁independently	-13275
▁recommendation	-13276
chi	-13277
▁Rat	-13278
▁Born	-13279
ranean	-13280
▁raped	-13281
▁pepper	-13282
▁sensors	-13283
▁arranged	-13284
▁determining	-13285
▁Joy	-13286
▁rage	-13287
▁sectors	-13288
▁Columbus	-13289
▁lobbying	-13290
▁capitalist	-13291
('	-13292
","	-13293
fin	-13294
plex	-13295
▁blacks	-13296
▁severely	-13297
▁practically	-13298
viol	-13299
▁Buzz	-13300
▁dism	-13301
▁Eight	-13302
▁Computer	-13303
▁mentally	-13304
▁celebrity	-13305
onde	-13306
▁Plat	-13307
▁Soul	-13308
▁shar	-13309
▁Nearly	-13310
▁alumin	-13311
▁archae	-13312
▁insists	-13313
▁inclusion	-13314
▁celebrating	-13315
aru	-13316
people	-13317
▁firmly	-13318
▁wolves	-13319
▁Process	-13320
▁formerly	-13321
▁monsters	-13322
▁organize	-13323
▁exceptions	-13324
▁medication	-13325
▁Nobody	-13326
▁regards	-13327
▁attacker	-13328
iang	-13329
▁Ric	-13330
▁Rou	-13331
direct	-13332
ECT	-13333
▁reduces	-13334
▁colonial	-13335
▁educated	-13336
▁limiting	-13337
▁offshore	-13338
▁accounting	-13339
aba	-13340
ride	-13341
▁Kle	-13342
▁Mul	-13343
arcer	-13344
▁Glenn	-13345
▁miner	-13346
▁Rodrig	-13347
▁Updated	-13348
▁exports	-13349
▁healing	-13350
▁justified	-13351
ayer	-13352
▁ram	-13353
ailand	-13354
▁tooth	-13355
itative	-13356
▁hungry	-13357
olutions	-13358
▁tribute	-13359
▁privately	-13360
▁tat	-13361
pring	-13362
▁pound	-13363
▁spare	-13364
▁Legend	-13365
▁Terror	-13366
▁enables	-13367
▁separation	-13368
▁institutional	-13369
asi	-13370
▁Brady	-13371
▁tenure	-13372
▁martial	-13373
▁monument	-13374
▁economist	-13375
igm	-13376
usk	-13377
ften	-13378
▁shy	-13379
store	-13380
▁Spot	-13381
heastern	-13382
▁extends	-13383
▁wherever	-13384
▁MIT	-13385
▁aqu	-13386
oubted	-13387
▁Laura	-13388
writing	-13389
▁genius	-13390
▁Relations	-13391
▁genuinely	-13392
▁successor	-13393
onge	-13394
raham	-13395
▁node	-13396
▁toilet	-13397
▁Islamist	-13398
▁investor	-13399
▁matching	-13400
▁о	-13401
Hey	-13402
▁pir	-13403
▁halt	-13404
▁Charg	-13405
▁pistol	-13406
▁Goldman	-13407
▁darkness	-13408
▁bankruptcy	-13409
▁Agr	-13410
group	-13411
space	-13412
▁chess	-13413
ordable	-13414
selling	-13415
▁Stalin	-13416
▁Studio	-13417
▁lacking	-13418
ocumented	-13419
▁Exchange	-13420
▁COM	-13421
▁hij	-13422
▁sail	-13423
irable	-13424
▁ultra	-13425
▁Collect	-13426
▁leather	-13427
ür	-13428
▁bloody	-13429
▁powder	-13430
▁precious	-13431
ahl	-13432
▁cm	-13433
aley	-13434
cend	-13435
adows	-13436
▁Tigers	-13437
▁athletic	-13438
▁Caribbean	-13439
▁trafficking	-13440
umm	-13441
▁MD	-13442
than	-13443
▁impe	-13444
▁Sunni	-13445
▁amend	-13446
▁Member	-13447
▁expose	-13448
▁Jessica	-13449
▁clarity	-13450
▁straightforward	-13451
▁Od	-13452
▁sie	-13453
zilla	-13454
▁medi	-13455
▁Sudan	-13456
▁acres	-13457
agonist	-13458
mination	-13459
▁shifting	-13460
▁sovereign	-13461
▁facilitate	-13462
iph	-13463
▁RC	-13464
fulness	-13465
▁behaviors	-13466
▁negotiate	-13467
▁Transportation	-13468
▁unst	-13469
▁layout	-13470
▁Highway	-13471
▁REUTERS	-13472
▁lecture	-13473
▁overlook	-13474
▁consultant	-13475
▁certificate	-13476
IVE	-13477
▁MI	-13478
oler	-13479
▁PAC	-13480
▁Pas	-13481
frame	-13482
▁Okay	-13483
▁sheer	-13484
▁leverage	-13485
▁protective	-13486
▁Tory	-13487
▁craw	-13488
▁airpl	-13489
▁Double	-13490
▁alternate	-13491
eno	-13492
azed	-13493
▁Hunt	-13494
▁accompany	-13495
▁deployment	-13496
esis	-13497
▁las	-13498
▁plea	-13499
▁fertil	-13500
▁Village	-13501
▁infections	-13502
▁expressions	-13503
cot	-13504
▁{\	-13505
▁DNC	-13506
oline	-13507
▁ware	-13508
▁spirits	-13509
▁screening	-13510
▁compassion	-13511
▁demonstrates	-13512
uy	-13513
▁dur	-13514
ector	-13515
▁Bros	-13516
azines	-13517
▁abused	-13518
▁lesser	-13519
▁puzzle	-13520
From	-13521
hydr	-13522
▁Lex	-13523
proof	-13524
▁Cart	-13525
▁Cher	-13526
▁Activ	-13527
▁Quick	-13528
........	-13529
▁Recently	-13530
▁Superman	-13531
▁Emily	-13532
▁Budget	-13533
▁provin	-13534
▁damages	-13535
▁publishers	-13536
MB	-13537
▁Kos	-13538
https	-13539
▁veto	-13540
▁Moham	-13541
▁heated	-13542
▁Apparently	-13543
▁influences	-13544
▁BY	-13545
Even	-13546
urned	-13547
▁neat	-13548
▁tube	-13549
▁Chand	-13550
▁Fixed	-13551
▁Happy	-13552
▁defic	-13553
▁gamers	-13554
▁Princess	-13555
▁disclose	-13556
▁accountability	-13557
fix	-13558
▁FL	-13559
▁Devil	-13560
▁pairs	-13561
umbling	-13562
▁sticks	-13563
▁chemistry	-13564
▁preliminary	-13565
▁fib	-13566
advant	-13567
▁statue	-13568
▁credited	-13569
▁economists	-13570
airo	-13571
▁mate	-13572
▁metab	-13573
▁stays	-13574
▁header	-13575
▁exhibition	-13576
▁“[	-13577
▁Kath	-13578
▁Viol	-13579
▁font	-13580
▁fiber	-13581
▁flows	-13582
national	-13583
▁costume	-13584
▁midnight	-13585
▁MAR	-13586
hesis	-13587
ungle	-13588
▁Gonz	-13589
▁Requ	-13590
▁fart	-13591
▁retro	-13592
▁convinc	-13593
▁Imperial	-13594
▁Thailand	-13595
▁AF	-13596
▁Hero	-13597
▁Path	-13598
▁visa	-13599
▁twist	-13600
▁Fourth	-13601
▁iTunes	-13602
▁abortions	-13603
▁confusing	-13604
();	-13605
pub	-13606
▁SA	-13607
▁Ald	-13608
black	-13609
▁Shar	-13610
▁chop	-13611
▁intens	-13612
▁trauma	-13613
▁Bennett	-13614
▁Finland	-13615
connected	-13616
▁averaged	-13617
▁Ny	-13618
keys	-13619
▁celeb	-13620
▁locally	-13621
ufficient	-13622
▁diabetes	-13623
▁compatible	-13624
▁interactive	-13625
':	-13626
▁DM	-13627
▁Quinn	-13628
▁besides	-13629
▁impress	-13630
▁enabling	-13631
▁reasonably	-13632
▁functioning	-13633
▁arrangements	-13634
Who	-13635
othy	-13636
arthy	-13637
chair	-13638
▁Chad	-13639
▁reset	-13640
▁tomat	-13641
oubtedly	-13642
▁compiled	-13643
▁spectacular	-13644
▁ADVERTISEMENT	-13645
▁inappropriate	-13646
levant	-13647
render	-13648
▁Nobel	-13649
▁leaks	-13650
▁Enterprise	-13651
▁grandmother	-13652
IO	-13653
iots	-13654
wick	-13655
▁Systems	-13656
▁imagined	-13657
▁billionaire	-13658
obi	-13659
▁),	-13660
oday	-13661
tees	-13662
▁Kind	-13663
▁Self	-13664
▁pile	-13665
▁unre	-13666
▁edges	-13667
▁Taking	-13668
▁infamous	-13669
▁Officials	-13670
▁Git	-13671
puted	-13672
▁wand	-13673
▁Beast	-13674
lements	-13675
▁delays	-13676
▁Gallery	-13677
▁Operation	-13678
▁ACL	-13679
▁USD	-13680
▁Lang	-13681
▁fancy	-13682
▁tricks	-13683
atherine	-13684
▁starter	-13685
▁Together	-13686
▁Warriors	-13687
▁accidents	-13688
▁achievements	-13689
See	-13690
▁Sor	-13691
▁Typ	-13692
inate	-13693
roots	-13694
▁Past	-13695
▁Task	-13696
escope	-13697
▁apology	-13698
▁outbreak	-13699
▁sporting	-13700
▁accommodate	-13701
ollo	-13702
▁Nag	-13703
iotic	-13704
table	-13705
▁Laden	-13706
▁plaint	-13707
▁whilst	-13708
▁Tribune	-13709
▁artistic	-13710
▁quantity	-13711
▁molecules	-13712
▁solidarity	-13713
▁desperately	-13714
▁JS	-13715
▁twin	-13716
artisan	-13717
▁finals	-13718
▁horses	-13719
▁Aub	-13720
▁GMT	-13721
eches	-13722
▁hydro	-13723
▁beside	-13724
▁heroin	-13725
▁reinfor	-13726
▁battlefield	-13727
▁MC	-13728
▁holy	-13729
▁defining	-13730
amy	-13731
▁AG	-13732
▁Moh	-13733
▁Airl	-13734
iances	-13735
▁maker	-13736
▁tribal	-13737
▁diagnosis	-13738
▁mortality	-13739
Qaeda	-13740
▁Save	-13741
▁Shah	-13742
▁lined	-13743
▁unanim	-13744
▁wounds	-13745
▁relating	-13746
▁Cardinals	-13747
▁disorders	-13748
▁underneath	-13749
▁Scientology	-13750
▁Instructions	-13751
▁civilization	-13752
▁()	-13753
▁GA	-13754
talk	-13755
Leaks	-13756
opard	-13757
▁Dear	-13758
▁Blair	-13759
▁Qatar	-13760
▁boats	-13761
▁laying	-13762
▁stroke	-13763
▁Account	-13764
▁corners	-13765
▁grandfather	-13766
▁preferences	-13767
oner	-13768
▁Ave	-13769
ocity	-13770
▁Grey	-13771
source	-13772
▁Austria	-13773
ido	-13774
▁SW	-13775
▁Prim	-13776
▁cord	-13777
▁fulfill	-13778
▁sounded	-13779
▁intercept	-13780
tem	-13781
ripp	-13782
▁Him	-13783
▁Pete	-13784
▁monop	-13785
▁poses	-13786
▁Hughes	-13787
▁UPDATE	-13788
▁felony	-13789
▁slaves	-13790
▁altered	-13791
▁travels	-13792
▁declining	-13793
▁incentive	-13794
▁unacceptable	-13795
▁justification	-13796
Ed	-13797
ucle	-13798
INGTON	-13799
illery	-13800
▁mobil	-13801
ervation	-13802
▁provinces	-13803
":"	-13804
uced	-13805
▁oun	-13806
▁dive	-13807
▁Spurs	-13808
▁crowded	-13809
▁qualities	-13810
▁casualties	-13811
▁philosopher	-13812
▁smiling	-13813
▁historian	-13814
▁inability	-13815
▁portfolio	-13816
▁Iss	-13817
itbart	-13818
▁outlet	-13819
▁solved	-13820
▁Brothers	-13821
▁syndrome	-13822
▁problematic	-13823
▁ال	-13824
prov	-13825
▁Jong	-13826
▁showc	-13827
▁locals	-13828
▁kicking	-13829
▁switched	-13830
Sec	-13831
▁Ax	-13832
udge	-13833
▁cort	-13834
▁pale	-13835
▁brick	-13836
▁loses	-13837
▁biology	-13838
▁murders	-13839
▁rushing	-13840
▁rendering	-13841
▁Shi	-13842
▁grey	-13843
▁mant	-13844
ifting	-13845
▁Learn	-13846
▁debris	-13847
▁dealers	-13848
▁consolid	-13849
▁killings	-13850
▁obligation	-13851
nik	-13852
▁CT	-13853
abbit	-13854
▁Hills	-13855
▁blend	-13856
▁Defence	-13857
▁exhaust	-13858
▁Analysis	-13859
▁kilometers	-13860
▁considerably	-13861
▁Hig	-13862
▁Nex	-13863
▁liv	-13864
points	-13865
▁Bears	-13866
ullivan	-13867
▁charts	-13868
▁inevitably	-13869
▁VA	-13870
▁oh	-13871
▁ox	-13872
umns	-13873
▁Isa	-13874
inery	-13875
▁Mall	-13876
▁Race	-13877
headed	-13878
ueller	-13879
▁vigil	-13880
▁Survey	-13881
▁cousin	-13882
▁sacred	-13883
▁stones	-13884
▁discont	-13885
▁Generate	-13886
.“	-13887
cs	-13888
yang	-13889
▁ward	-13890
Christ	-13891
▁Angela	-13892
▁partial	-13893
▁Homeland	-13894
tic	-13895
▁gods	-13896
terior	-13897
▁Eddie	-13898
▁interim	-13899
▁recalls	-13900
▁reluctant	-13901
dev	-13902
his	-13903
▁Abs	-13904
▁BJP	-13905
▁Globe	-13906
▁modules	-13907
▁Politics	-13908
▁Starting	-13909
~~	-13910
eor	-13911
fly	-13912
wear	-13913
mines	-13914
oween	-13915
▁Bishop	-13916
▁multip	-13917
▁Vikings	-13918
▁musician	-13919
▁outright	-13920
▁rankings	-13921
▁Regardless	-13922
▁smartphones	-13923
iri	-13924
jar	-13925
▁Pros	-13926
▁punct	-13927
culation	-13928
▁searches	-13929
ographical	-13930
▁directory	-13931
▁consistency	-13932
NY	-13933
OG	-13934
len	-13935
▁mi	-13936
three	-13937
▁Kell	-13938
agging	-13939
▁sovereignty	-13940
▁fundamentally	-13941
▁Pil	-13942
▁RAM	-13943
▁merc	-13944
▁encrypt	-13945
▁verdict	-13946
▁Richmond	-13947
▁publications	-13948
UE	-13949
uity	-13950
▁Kel	-13951
ocide	-13952
▁inex	-13953
▁Calgary	-13954
astically	-13955
▁Muhammad	-13956
▁Resources	-13957
▁practicing	-13958
▁jurisdiction	-13959
NT	-13960
home	-13961
uting	-13962
iciary	-13963
▁Forum	-13964
Because	-13965
▁clause	-13966
▁loyalty	-13967
▁revenge	-13968
▁Phillips	-13969
▁cancelled	-13970
▁observers	-13971
▁sexuality	-13972
asha	-13973
onel	-13974
ovic	-13975
▁Raf	-13976
▁pipe	-13977
▁median	-13978
▁underway	-13979
qual	-13980
▁Crow	-13981
▁Lost	-13982
▁pole	-13983
▁taxi	-13984
▁irrit	-13985
olutely	-13986
▁fruits	-13987
▁drought	-13988
▁unlimited	-13989
uki	-13990
riel	-13991
▁Pad	-13992
▁cab	-13993
acious	-13994
ocaust	-13995
▁packs	-13996
▁Gandhi	-13997
▁twelve	-13998
uras	-13999
▁Tib	-14000
osures	-14001
▁erupt	-14002
▁Tehran	-14003
▁eighth	-14004
▁forums	-14005
▁shipped	-14006
▁sacrific	-14007
▁assumptions	-14008
▁Abr	-14009
▁Chem	-14010
▁Kane	-14011
▁exagger	-14012
▁striker	-14013
▁lawsuits	-14014
▁subscription	-14015
▁demonstrations	-14016
Per	-14017
▁ES	-14018
▁spawn	-14019
▁travelling	-14020
ppo	-14021
ths	-14022
hner	-14023
isen	-14024
olan	-14025
ulum	-14026
▁vet	-14027
▁seal	-14028
perform	-14029
▁lovely	-14030
▁listing	-14031
▁revised	-14032
▁Pink	-14033
rients	-14034
▁Strong	-14035
▁farmer	-14036
▁Workers	-14037
▁leagues	-14038
▁sunlight	-14039
Ab	-14040
HD	-14041
pit	-14042
▁Joh	-14043
▁Mak	-14044
▁Deal	-14045
thirds	-14046
▁purple	-14047
▁amateur	-14048
▁Ultimately	-14049
uh	-14050
abad	-14051
hend	-14052
▁Jav	-14053
▁Ground	-14054
▁kernel	-14055
CNN	-14056
▁Hat	-14057
▁generic	-14058
▁hearings	-14059
▁resignation	-14060
▁Kill	-14061
▁Trav	-14062
aughed	-14063
▁Brend	-14064
▁Costa	-14065
▁Reform	-14066
usterity	-14067
▁Liberals	-14068
▁flooding	-14069
▁achieving	-14070
uv	-14071
▁Dist	-14072
▁Join	-14073
▁Armen	-14074
▁Diamond	-14075
▁exhibit	-14076
▁gallery	-14077
God	-14078
▁wip	-14079
▁Maur	-14080
▁Zero	-14081
ogenic	-14082
▁Agric	-14083
▁appet	-14084
▁indef	-14085
▁interf	-14086
▁newest	-14087
WA	-14088
▁Fis	-14089
▁Lore	-14090
▁fond	-14091
outube	-14092
▁digit	-14093
▁magazines	-14094
").	-14095
▁Ahmed	-14096
▁guilt	-14097
▁Picture	-14098
▁Electric	-14099
▁transcript	-14100
▁Ll	-14101
orus	-14102
▁Winn	-14103
▁binding	-14104
▁Airlines	-14105
▁overhaul	-14106
▁electronics	-14107
▁obligations	-14108
dec	-14109
▁tha	-14110
▁Clay	-14111
normal	-14112
▁Going	-14113
▁throat	-14114
▁salaries	-14115
▁favorable	-14116
▁predecessor	-14117
ede	-14118
▁mph	-14119
borough	-14120
▁costly	-14121
▁intend	-14122
DE	-14123
Are	-14124
hum	-14125
▁od	-14126
▁HTT	-14127
▁dated	-14128
▁spill	-14129
▁dangers	-14130
▁entries	-14131
▁specialized	-14132
asa	-14133
nesty	-14134
rones	-14135
▁Days	-14136
▁Sandy	-14137
bull	-14138
▁Daw	-14139
▁McD	-14140
ensen	-14141
▁Curt	-14142
riages	-14143
▁yours	-14144
▁Certain	-14145
▁bearing	-14146
▁Malaysia	-14147
▁outlined	-14148
▁quarters	-14149
ML	-14150
Mod	-14151
▁Brig	-14152
▁Nine	-14153
▁Colin	-14154
▁Joint	-14155
▁Tommy	-14156
▁Luther	-14157
▁relies	-14158
▁laughed	-14159
▁graduates	-14160
▁businessman	-14161
▁Gate	-14162
▁advers	-14163
▁Fur	-14164
▁namely	-14165
▁catching	-14166
▁licenses	-14167
▁objectives	-14168
▁creep	-14169
▁flesh	-14170
▁horiz	-14171
▁vessel	-14172
▁matched	-14173
ко	-14174
Pal	-14175
▁LG	-14176
▁duo	-14177
▁quo	-14178
idges	-14179
▁Baby	-14180
▁dash	-14181
▁lips	-14182
▁Creek	-14183
▁Duncan	-14184
▁File	-14185
castle	-14186
▁Criminal	-14187
▁disadvant	-14188
▁graduated	-14189
▁sensitivity	-14190
▁kg	-14191
ceans	-14192
▁copper	-14193
▁insure	-14194
▁embassy	-14195
▁labeled	-14196
▁Ki	-14197
▁Mi	-14198
▁Tu	-14199
▁Nut	-14200
▁castle	-14201
▁BP	-14202
edge	-14203
mand	-14204
▁Yellow	-14205
▁tradem	-14206
▁pretend	-14207
"),	-14208
tit	-14209
▁cure	-14210
▁spite	-14211
▁Montana	-14212
▁varying	-14213
▁misleading	-14214
▁Bangl	-14215
▁Nathan	-14216
economic	-14217
▁adjusted	-14218
▁partisan	-14219
▁prescription	-14220
▁entrepreneurs	-14221
omo	-14222
▁GPS	-14223
▁wit	-14224
aires	-14225
▁cute	-14226
▁Added	-14227
▁breed	-14228
▁propri	-14229
▁denying	-14230
▁empower	-14231
▁contractors	-14232
ITH	-14233
team	-14234
uded	-14235
▁Musk	-14236
▁nest	-14237
▁flies	-14238
▁mature	-14239
▁prejud	-14240
▁deleted	-14241
▁algorithms	-14242
!!!	-14243
▁si	-14244
kens	-14245
oute	-14246
adequ	-14247
▁slip	-14248
▁chairs	-14249
▁sketch	-14250
▁insects	-14251
▁tourist	-14252
▁Palestine	-14253
▁frustrating	-14254
ALL	-14255
itic	-14256
manuel	-14257
▁referen	-14258
▁detection	-14259
▁meg	-14260
green	-14261
width	-14262
▁Mack	-14263
▁Till	-14264
▁Blues	-14265
▁Chile	-14266
▁moist	-14267
▁rides	-14268
▁sanct	-14269
▁Animal	-14270
▁sealed	-14271
▁surveys	-14272
▁stranger	-14273
▁Agreement	-14274
▁Commander	-14275
ée	-14276
afe	-14277
lett	-14278
▁Esc	-14279
▁Wor	-14280
World	-14281
marks	-14282
▁cosm	-14283
▁leap	-14284
▁quad	-14285
▁spat	-14286
arette	-14287
▁lacks	-14288
▁Chamber	-14289
▁vessels	-14290
▁marketplace	-14291
kn	-14292
acht	-14293
ivic	-14294
▁Cou	-14295
▁Rud	-14296
▁pup	-14297
▁Mull	-14298
funded	-14299
▁heter	-14300
▁inflamm	-14301
▁mounted	-14302
▁extending	-14303
▁theoretical	-14304
fam	-14305
vet	-14306
▁Ko	-14307
▁bind	-14308
▁cares	-14309
▁modes	-14310
▁vacuum	-14311
▁valued	-14312
▁ignoring	-14313
▁paintings	-14314
▁substantially	-14315
)(	-14316
NET	-14317
lies	-14318
accur	-14319
ioned	-14320
▁Ferr	-14321
iology	-14322
mingham	-14323
▁tourism	-14324
▁carriers	-14325
▁Interview	-14326
▁Iv	-14327
asma	-14328
path	-14329
▁Hack	-14330
▁boots	-14331
▁decks	-14332
▁briefing	-14333
▁encourages	-14334
▁presidents	-14335
▁permanently	-14336
▁measurements	-14337
”—	-14338
▁"[	-14339
rolling	-14340
telling	-14341
▁makeup	-14342
munition	-14343
▁Belgian	-14344
▁Protest	-14345
▁intersection	-14346
▁luc	-14347
▁Nancy	-14348
▁shelf	-14349
▁Rodgers	-14350
▁massacre	-14351
▁strictly	-14352
▁obstacles	-14353
aku	-14354
max	-14355
cill	-14356
▁ner	-14357
▁Mans	-14358
▁caut	-14359
uations	-14360
▁Soccer	-14361
▁Hungary	-14362
▁artwork	-14363
▁refusal	-14364
lementary	-14365
▁arbitrary	-14366
▁victories	-14367
El	-14368
iga	-14369
mile	-14370
▁hem	-14371
▁Late	-14372
iberal	-14373
▁deposits	-14374
▁tactical	-14375
eem	-14376
▁Tru	-14377
ulous	-14378
▁Cond	-14379
▁pond	-14380
▁conqu	-14381
▁galaxy	-14382
▁Usually	-14383
▁refuses	-14384
▁watches	-14385
▁Customer	-14386
▁analyses	-14387
iterranean	-14388
▁tournaments	-14389
kh	-14390
Where	-14391
icers	-14392
▁disk	-14393
▁aston	-14394
respons	-14395
▁summon	-14396
▁useless	-14397
▁basement	-14398
▁initiated	-14399
▁snaps	-14400
▁folder	-14401
▁intake	-14402
▁Training	-14403
▁eventual	-14404
▁starring	-14405
▁violating	-14406
▁pronounced	-14407
▁IG	-14408
elta	-14409
▁piano	-14410
working	-14411
▁spotlight	-14412
ierra	-14413
▁Girls	-14414
▁Wells	-14415
▁depri	-14416
▁resid	-14417
▁divine	-14418
▁incoming	-14419
▁°	-14420
▁Mine	-14421
▁Poly	-14422
▁unle	-14423
▁aides	-14424
▁incon	-14425
▁lingu	-14426
▁hunger	-14427
▁poetry	-14428
▁suburbs	-14429
▁Immigration	-14430
▁VM	-14431
aired	-14432
doors	-14433
▁unch	-14434
▁Often	-14435
▁midst	-14436
▁nerve	-14437
▁ports	-14438
▁Brooks	-14439
▁Chiefs	-14440
▁Flight	-14441
▁aboard	-14442
▁aggreg	-14443
original	-14444
▁descend	-14445
▁pockets	-14446
▁incarcer	-14447
▁settlements	-14448
je	-14449
llo	-14450
nex	-14451
anto	-14452
▁Sau	-14453
color	-14454
▁opio	-14455
▁pseud	-14456
ositive	-14457
▁fortun	-14458
▁passive	-14459
▁playback	-14460
▁skeptical	-14461
III	-14462
▁EM	-14463
▁Lem	-14464
▁artif	-14465
▁donate	-14466
▁charter	-14467
ASHINGTON	-14468
▁speeches	-14469
▁sweeping	-14470
▁WikiLeaks	-14471
▁credential	-14472
▁entertaining	-14473
BL	-14474
estab	-14475
degree	-14476
server	-14477
▁Metal	-14478
▁tricky	-14479
▁symbols	-14480
▁regulate	-14481
▁disclosed	-14482
uru	-14483
▁SO	-14484
ando	-14485
hist	-14486
inis	-14487
▁Pyr	-14488
▁REL	-14489
▁Parks	-14490
▁batch	-14491
▁rebell	-14492
▁Fantasy	-14493
▁Griffin	-14494
▁Silicon	-14495
▁twitter	-14496
▁Portugal	-14497
▁restored	-14498
▁troubles	-14499
▁Halloween	-14500
▁declaring	-14501
▁liability	-14502
▁processed	-14503
▁endorsement	-14504
ti	-14505
xx	-14506
▁::	-14507
▁Tar	-14508
▁bay	-14509
▁Zach	-14510
▁asleep	-14511
▁shapes	-14512
▁texture	-14513
▁mistaken	-14514
▁subjected	-14515
▁positively	-14516
engu	-14517
lict	-14518
oust	-14519
▁Visit	-14520
lington	-14521
▁facial	-14522
▁sheets	-14523
▁malware	-14524
▁streams	-14525
▁Breitbart	-14526
▁measuring	-14527
▁bipartisan	-14528
▁Got	-14529
▁HBO	-14530
▁Wes	-14531
▁gau	-14532
▁Horn	-14533
▁Yale	-14534
▁Minor	-14535
▁plugin	-14536
▁fortune	-14537
▁vendors	-14538
▁freshman	-14539
▁unsuccess	-14540
▁correlation	-14541
▁philosophical	-14542
Men	-14543
amo	-14544
rise	-14545
▁foul	-14546
▁saves	-14547
▁doubts	-14548
▁Buddhist	-14549
eta	-14550
▁Wa	-14551
▁Syn	-14552
ulent	-14553
icating	-14554
▁Nashville	-14555
Us	-14556
▁neo	-14557
▁hash	-14558
choice	-14559
▁candy	-14560
▁drill	-14561
▁refund	-14562
▁Solution	-14563
▁Hopefully	-14564
▁inhabitants	-14565
Des	-14566
bot	-14567
▁NDP	-14568
ocker	-14569
omatic	-14570
▁Dynam	-14571
▁Kenny	-14572
▁nurse	-14573
▁holder	-14574
▁Invalid	-14575
▁Mueller	-14576
▁Actually	-14577
▁stealing	-14578
▁treasure	-14579
unks	-14580
▁Dra	-14581
▁Lic	-14582
▁env	-14583
▁Compan	-14584
▁hydrogen	-14585
▁Alb	-14586
▁aug	-14587
plant	-14588
▁Lion	-14589
▁Rush	-14590
▁Shaw	-14591
▁haul	-14592
▁cancel	-14593
▁cycles	-14594
▁intact	-14595
▁tongue	-14596
▁heating	-14597
▁Pictures	-14598
▁analyzed	-14599
ía	-14600
uits	-14601
▁CSS	-14602
▁aide	-14603
▁firearm	-14604
▁singles	-14605
▁credible	-14606
▁memorable	-14607
▁reviewing	-14608
▁Chancellor	-14609
▁confronted	-14610
▁Brotherhood	-14611
▁commitments	-14612
▁demographic	-14613
▁undoubtedly	-14614
▁PL	-14615
Time	-14616
plan	-14617
culus	-14618
urring	-14619
although	-14620
▁Commerce	-14621
▁shutdown	-14622
▁tolerance	-14623
▁py	-14624
prom	-14625
▁Antar	-14626
▁Graph	-14627
angered	-14628
▁relent	-14629
▁Alexand	-14630
▁Machine	-14631
▁Similar	-14632
▁incomes	-14633
▁Mohammed	-14634
▁anonymity	-14635
▁defendant	-14636
▁committing	-14637
▁GR	-14638
Yeah	-14639
retion	-14640
▁Catal	-14641
▁freeze	-14642
▁Someone	-14643
▁utterly	-14644
▁worries	-14645
▁listened	-14646
▁sidewalk	-14647
▁belonging	-14648
▁furniture	-14649
▁Commonwealth	-14650
Here	-14651
▁esp	-14652
search	-14653
▁Bills	-14654
▁Stage	-14655
▁eaten	-14656
▁newer	-14657
▁globally	-14658
especially	-14659
ucc	-14660
ummy	-14661
▁cod	-14662
▁tire	-14663
▁drain	-14664
▁swall	-14665
▁Shield	-14666
▁Shortly	-14667
▁deterior	-14668
▁assembled	-14669
▁prevention	-14670
▁convenience	-14671
▁intentionally	-14672
Pres	-14673
bank	-14674
bast	-14675
▁Opt	-14676
▁Roth	-14677
rities	-14678
▁Hebrew	-14679
▁String	-14680
▁inspire	-14681
▁robbery	-14682
▁WASHINGTON	-14683
▁breakthrough	-14684
del	-14685
▁NPR	-14686
▁piv	-14687
▁eleg	-14688
▁aliens	-14689
▁explan	-14690
▁Privacy	-14691
▁cluster	-14692
▁drilling	-14693
▁confidential	-14694
▁evolutionary	-14695
ghai	-14696
esity	-14697
String	-14698
▁embry	-14699
▁euros	-14700
respect	-14701
▁Joshua	-14702
▁foster	-14703
▁apologize	-14704
▁organizers	-14705
▁fundraising	-14706
ovo	-14707
▁---	-14708
▁LLC	-14709
▁agg	-14710
▁pel	-14711
▁Drew	-14712
▁Counter	-14713
▁touching	-14714
constitutional	-14715
▁Mediterranean	-14716
CL	-14717
NE	-14718
▁HR	-14719
▁Few	-14720
▁Wang	-14721
▁melt	-14722
▁oral	-14723
▁donor	-14724
▁drown	-14725
▁erect	-14726
lessness	-14727
▁suburban	-14728
actory	-14729
▁rings	-14730
▁rises	-14731
▁unlaw	-14732
▁Weekly	-14733
▁ladder	-14734
▁lighter	-14735
▁secretly	-14736
▁Available	-14737
▁ende	-14738
▁fines	-14739
▁Server	-14740
▁mixing	-14741
▁pitcher	-14742
▁dynamics	-14743
▁embraced	-14744
▁prevents	-14745
▁automated	-14746
▁discusses	-14747
▁pressures	-14748
▁Indianapolis	-14749
Look	-14750
bone	-14751
▁Sacr	-14752
▁hind	-14753
▁mush	-14754
▁Casey	-14755
▁Karen	-14756
▁Greater	-14757
▁premier	-14758
▁overtime	-14759
▁dominance	-14760
▁prediction	-14761
?!	-14762
▁(-	-14763
▁snap	-14764
▁blown	-14765
▁Reason	-14766
▁solving	-14767
▁stepping	-14768
▁verified	-14769
mined	-14770
umbers	-14771
▁risen	-14772
▁Apollo	-14773
▁Julian	-14774
▁verbal	-14775
▁columns	-14776
▁concess	-14777
ка	-14778
ogg	-14779
osi	-14780
runner	-14781
▁Bulls	-14782
▁Large	-14783
▁wheat	-14784
▁Samuel	-14785
▁reiter	-14786
▁separately	-14787
▁concentrated	-14788
uese	-14789
▁Fan	-14790
▁ster	-14791
▁Impro	-14792
▁kicks	-14793
▁shook	-14794
▁excluded	-14795
▁Birmingham	-14796
▁interpreted	-14797
▁م	-14798
His	-14799
[...]
